!
"
#
$
%
&
'
(
)
*
+
,
-
.
/
0
1
2
3
4
5
6
7
8
9
:
;
<
=
>
?
@
A
B
C
D
E
F
G
H
I
J
K
L
M
N
O
P
Q
R
S
T
U
V
W
X
Y
Z
[
\
]
^
_
`
a
b
c
d
e
f
g
h
i
j
k
l
m
n
o
p
q
r
s
t
u
v
w
x
y
z
{
|
}
~
¡
¢
£
¤
¥
¦
§
¨
©
ª
«
¬
®
¯
°
±
²
³
´
µ
¶
·
¸
¹
º
»
¼
½
¾
¿
À
Á
Â
Ã
Ä
Å
Æ
Ç
È
É
Ê
Ë
Ì
Í
Î
Ï
Ð
Ñ
Ò
Ó
Ô
Õ
Ö
×
Ø
Ù
Ú
Û
Ü
Ý
Þ
ß
à
á
â
ã
ä
å
æ
ç
è
é
ê
ë
ì
í
î
ï
ð
ñ
ò
ó
ô
õ
ö
÷
ø
ù
ú
û
ü
ý
þ
ÿ
Ā
ā
Ă
ă
Ą
ą
Ć
ć
Ĉ
ĉ
Ċ
ċ
Č
č
Ď
ď
Đ
đ
Ē
ē
Ĕ
ĕ
Ė
ė
Ę
ę
Ě
ě
Ĝ
ĝ
Ğ
ğ
Ġ
ġ
Ģ
ģ
Ĥ
ĥ
Ħ
ħ
Ĩ
ĩ
Ī
ī
Ĭ
ĭ
Į
į
İ
ı
Ĳ
ĳ
Ĵ
ĵ
Ķ
ķ
ĸ
Ĺ
ĺ
Ļ
ļ
Ľ
ľ
Ŀ
ŀ
Ł
ł
Ń
!</w>
"</w>
#</w>
$</w>
%</w>
&</w>
'</w>
(</w>
)</w>
*</w>
+</w>
,</w>
-</w>
.</w>
/</w>
0</w>
1</w>
2</w>
3</w>
4</w>
5</w>
6</w>
7</w>
8</w>
9</w>
:</w>
;</w>
<</w>
=</w>
></w>
?</w>
@</w>
A</w>
B</w>
C</w>
D</w>
E</w>
F</w>
G</w>
H</w>
I</w>
J</w>
K</w>
L</w>
M</w>
N</w>
O</w>
P</w>
Q</w>
R</w>
S</w>
T</w>
U</w>
V</w>
W</w>
X</w>
Y</w>
Z</w>
[</w>
\</w>
]</w>
^</w>
_</w>
`</w>
a</w>
b</w>
c</w>
d</w>
e</w>
f</w>
g</w>
h</w>
i</w>
j</w>
k</w>
l</w>
m</w>
n</w>
o</w>
p</w>
q</w>
r</w>
s</w>
t</w>
u</w>
v</w>
w</w>
x</w>
y</w>
z</w>
{</w>
|</w>
}</w>
~</w>
¡</w>
¢</w>
£</w>
¤</w>
¥</w>
¦</w>
§</w>
¨</w>
©</w>
ª</w>
«</w>
¬</w>
®</w>
¯</w>
°</w>
±</w>
²</w>
³</w>
´</w>
µ</w>
¶</w>
·</w>
¸</w>
¹</w>
º</w>
»</w>
¼</w>
½</w>
¾</w>
¿</w>
À</w>
Á</w>
Â</w>
Ã</w>
Ä</w>
Å</w>
Æ</w>
Ç</w>
È</w>
É</w>
Ê</w>
Ë</w>
Ì</w>
Í</w>
Î</w>
Ï</w>
Ð</w>
Ñ</w>
Ò</w>
Ó</w>
Ô</w>
Õ</w>
Ö</w>
×</w>
Ø</w>
Ù</w>
Ú</w>
Û</w>
Ü</w>
Ý</w>
Þ</w>
ß</w>
à</w>
á</w>
â</w>
ã</w>
ä</w>
å</w>
æ</w>
ç</w>
è</w>
é</w>
ê</w>
ë</w>
ì</w>
í</w>
î</w>
ï</w>
ð</w>
ñ</w>
ò</w>
ó</w>
ô</w>
õ</w>
ö</w>
÷</w>
ø</w>
ù</w>
ú</w>
û</w>
ü</w>
ý</w>
þ</w>
ÿ</w>
Ā</w>
ā</w>
Ă</w>
ă</w>
Ą</w>
ą</w>
Ć</w>
ć</w>
Ĉ</w>
ĉ</w>
Ċ</w>
ċ</w>
Č</w>
č</w>
Ď</w>
ď</w>
Đ</w>
đ</w>
Ē</w>
ē</w>
Ĕ</w>
ĕ</w>
Ė</w>
ė</w>
Ę</w>
ę</w>
Ě</w>
ě</w>
Ĝ</w>
ĝ</w>
Ğ</w>
ğ</w>
Ġ</w>
ġ</w>
Ģ</w>
ģ</w>
Ĥ</w>
ĥ</w>
Ħ</w>
ħ</w>
Ĩ</w>
ĩ</w>
Ī</w>
ī</w>
Ĭ</w>
ĭ</w>
Į</w>
į</w>
İ</w>
ı</w>
Ĳ</w>
ĳ</w>
Ĵ</w>
ĵ</w>
Ķ</w>
ķ</w>
ĸ</w>
Ĺ</w>
ĺ</w>
Ļ</w>
ļ</w>
Ľ</w>
ľ</w>
Ŀ</w>
ŀ</w>
Ł</w>
ł</w>
Ń</w>
in
th
an
re
ar
er
the</w>
ing</w>
ou
on
st
or
en
on</w>
al
at
er</w>
it
in</w>
to</w>
ro
is</w>
le
ic
at</w>
and</w>
ed</w>
of</w>
ch
or</w>
es</w>
il
el
st</w>
ac
om
am
lo
an</w>
ay</w>
sh
ri
li
ti
for</w>
ne
ðŁ
ra
ha
de
ol
ve</w>
si
ur
al</w>
se
's</w>
un
di
be
la
wh
oo
day</w>
en</w>
ma
no
le</w>
to
our</w>
ir
gh
wit
it</w>
yo
as
sp
this</w>
ts</w>
ati
you</w>
with</w>
ad
is
ab
ly</w>
we
the
te
as</w>
ag
vi
pp
su
ho
my</w>
..
bu
com
se</w>
ers</w>
me
me</w>
all</w>
con
mo
ke</w>
ge
out</w>
ent</w>
co
fe
ver
ar</w>
fro
au
po
ce</w>
ght</w>
are</w>
ss</w>
from</w>
ch</w>
tr
oun
one</w>
by</w>
do
th</w>
wor
ere</w>
ke
pro
for
ds</w>
bo
ta
we</w>
go
he
ter</w>
ing
de</w>
be</w>
ation</w>
mor
ay
ex
ill</w>
pe
ks</w>
sc
lu
fu
qu
ver</w>
ðŁĺ
ju
mu
ate</w>
and
ve
king</w>
mar
op
hi
...</w>
pre
ad</w>
ru
that</w>
jo
of
ce
new</w>
am</w>
ap
gre
ss
du
now</w>
ye
ting</w>
your</w>
ity</w>
ni
ci
par
gu
fi
af
per
ter
up</w>
so</w>
gi
ons</w>
gr
ge</w>
br
pl
't</w>
mi
ine</w>
wee
bi
us</w>
sho
have</w>
today</w>
av
man
ent
ack</w>
ure</w>
our
âĢ
cu
ld</w>
loo
im
ice</w>
som
fin
red</w>
ren
ood</w>
was</w>
tion</w>
pi
ir</w>
ther</w>
ty</w>
ph
ard</w>
ec
!!</w>
mon
more</w>
will</w>
tra
can</w>
col
pu
te</w>
wn</w>
mb
so
iti
just</w>
ning</w>
here</w>
tu
pa
pr
but</w>
what</w>
ally</w>
fir
min
ca
ant</w>
sa
ted</w>
ev
ment</w>
fa
get</w>
ame</w>
about</w>
gra
not</w>
happ
ays</w>
man</w>
his</w>
time</w>
like</w>
gh</w>
has</w>
than
love</w>
art</w>
ste
ding</w>
he</w>
cre
ws</w>
wat
der</w>
ite</w>
ser
ace</w>
age</w>
end</w>
str
aw
stor
re</w>
car
ell</w>
all
ps</w>
fri
pho
por
do</w>
ak
wi
fre
who</w>
shi
boo
son</w>
ell
when</w>
ill
how</w>
great</w>
win
el</w>
bl
ssi
ali
some</w>
ðŁĴ
ton
der
les</w>
pla
ï¸
ed
sch
hu
ong</w>
don</w>
ki
sh</w>
ann
cor
..</w>
ound</w>
az
ine
ary</w>
ful</w>
stu
ould</w>
sti
go</w>
see</w>
able</w>
ars</w>
ll</w>
mis
ber
ck</w>
wa
ents</w>
no</w>
sig
fe</w>
first</w>
et</w>
spe
ack
if</w>
ous</w>
'm</w>
ster</w>
app
ang
ance</w>
ans</w>
good</w>
bre
ever
they</w>
tic
come</w>
off
back</w>
ase</w>
ings</w>
old</w>
ight</w>
fo
her</w>
happy</w>
pic
its</w>
ving</w>
us
mat
hom
dy</w>
em
sk
ying</w>
their</w>
led</w>
ry</w>
ul
har
ck
ton</w>
onal</w>
hel
ric
bir
vie
way</w>
tri
da
ple
bro
sto
ool</w>
night</w>
tru
ba
read
res</w>
year</w>
fr
tor
als</w>
coun
cla
ture</w>
vel
ated</w>
lec
end
thing</w>
vo
ici
best</w>
can
work</w>
last</w>
after</w>
ence</w>
pri
pe</w>
es
il</w>
âĢ¦</w>
dre
ys</w>
over</w>
ies</w>
ðŁĳ
comm
tw
ink</w>
sun
cl
life</w>
tt
ach
land</w>
sy
tre
tal
pol
sm
duc
sal
ft</w>
're</w>
che
war
tur
ations</w>
ach</w>
ms</w>
ile</w>
pm</w>
ough</w>
ate
star
week</w>
!!!</w>
clu
there</w>
ner</w>
tom
sel
ï¸ı</w>
world</w>
ves</w>
cam
got</w>
inter
off</w>
um</w>
tonight</w>
other</w>
hou
look</w>
je
id</w>
sion</w>
beau
att
eli
ort</w>
rec
ff
ster
supp
gen
been</w>
ily</w>
team</w>
mm
ic</w>
peop
itt
ats</w>
only</w>
mber</w>
eng
bri
mp
know</w>
bur
bar
ins</w>
low</w>
she</w>
row</w>
âĿ
tro
people</w>
via</w>
low
aga
bet
xt</w>
fac
char
ear
wal
sen
fam
ble</w>
nati
ish</w>
nor
game</w>
live</w>
sco
ley</w>
don
ick</w>
ball</w>
very</w>
these</w>
pan
ia</w>
ating</w>
cr
are
gir
make</w>
stre
show</w>
."</w>
fl
up
dr
thanks</w>
illi
wom
sts</w>
ig
sur
every
cur
view</w>
let</w>
into</w>
most</w>
na
indi
gar
had</w>
sou
ved</w>
ant
ition</w>
made</w>
fol
uni
ited</w>
ðŁı
ical</w>
thr
ready</w>
chec
dra
kes</w>
book</w>
ep</w>
sic</w>
morning</w>
news</w>
cau
ct</w>
well</w>
anc
photo</w>
than</w>
ors</w>
birth
gg
out
next</w>
some
ening</w>
story</w>
chri
down</w>
home</w>
ffe
free</w>
da</w>
bor
fil
cial</w>
thank</w>
side</w>
lear
que
line</w>
ten
ates</w>
years</w>
my
photo
beauti
right</w>
nu
form
ship</w>
ban
ther
days</w>
gam
ason</w>
gy</w>
ðŁİ
birthday</w>
set</w>
ick
et
still</w>
coming</w>
take</w>
ðŁĩ
bb
sol
son
den
ep
music</w>
them</w>
den</w>
why</w>
foo
cra
amaz
wn
hol
tting</w>
wr
ue</w>
mag
cro
lan
clo
bra
ak</w>
sing</w>
cal
read</w>
've</w>
joh
bab
dri
blo
big</w>
eric
int</w>
tor</w>
try</w>
la</w>
leg
house</w>
mic
val
beautiful</w>
litt
check</w>
new
vers
sw
ari
play
her
âĢĵ</w>
win</w>
ma</w>
congr
school</w>
fun
.@</w>
heal
ich</w>
del
where</w>
lon
ket</w>
two</w>
much</w>
watch</w>
ven
ded</w>
ast</w>
ked</w>
bas
going</w>
mp</w>
ever</w>
ways</w>
roo
desig
ly
sed</w>
top</w>
lin
chan
too</w>
iting</w>
dent</w>
ghts</w>
ty
spo
need</w>
blu
inst
being</w>
âĿ¤
wel
ls</w>
him</w>
may</w>
sting</w>
na</w>
ely</w>
little</w>
ga
nat
tomor
mc
hon
want</w>
air
pic</w>
americ
per</w>
less</w>
week
vel</w>
ah</w>
cap
cham
ger
tim
tomorrow</w>
ness</w>
state</w>
hal
serv
ze</w>
os</w>
pat
vis
exc
sin
ff</w>
city</w>
cen
any
bel
summ
tin
would</w>
looking</w>
ko
cele
family</w>
mer
pow
help</w>
bus
co</w>
cle
self</w>
ens</w>
ics</w>
tho
ani
cho
lead
bs</w>
twee
think</w>
fore</w>
chil
vide
did</w>
ale</w>
chi
vil
ends</w>
wing</w>
pas
'll</w>
vol
sa</w>
gs</w>
many</w>
jec
before</w>
graph
ny</w>
uring</w>
wil
dd
buil
fav
sted</w>
tran
ling</w>
oud</w>
dge</w>
fiel
national</w>
sta
cer
were</w>
ina</w>
season</w>
cou
ned</w>
amazing</w>
tions</w>
celebr
ns</w>
ath
head</w>
sday</w>
dar
loc
vin
another</w>
goo
sat
ny
join</w>
pres
ses</w>
sing
ana</w>
ining</w>
....</w>
cour
ï¸ı
act</w>
cause</w>
light</w>
ams</w>
ta</w>
bal
fc</w>
high</w>
offici
tt</w>
christ
dic
day
ral</w>
hor
:)</w>
visi
nam
ob
mas</w>
ght
really</w>
tun
find</w>
through</w>
port</w>
ut
tive</w>
sty
ne</w>
ore</w>
ðŁĺĤ
support</w>
never</w>
even</w>
ðŁĶ
ha</w>
ya</w>
ld
uk</w>
ran
jam
with
medi
des</w>
ney</w>
ching</w>
ale
hy
kin
!!
dy
place</w>
also</w>
ble
which</w>
black</w>
bli
say</w>
park</w>
play</w>
ire</w>
video</w>
weekend</w>
ail
key</w>
pt</w>
ward</w>
friday</w>
din
iness</w>
gro
ben
always</w>
tball</w>
ago</w>
mil
cy
produc
disc
under
please</w>
spor
full</w>
ey</w>
ðŁĻ
ise</w>
ities</w>
cat
kno
use</w>
fore
ker</w>
art
high
open</w>
san
ef
ours</w>
shed</w>
stri
dro
again</w>
im</w>
ðŁĵ
enjo
fun</w>
getting</w>
pen
ger</w>
cli
any</w>
every</w>
eu
women</w>
âľ
est</w>
could</w>
ry
"@</w>
thou
sha
commun
ber</w>
dents</w>
dis
while</w>
away</w>
dio</w>
ham
gla
date</w>
ka</w>
miss</w>
unch</w>
won
inf
room</w>
ga</w>
real</w>
exper
direc
should</w>
spr
gol
long</w>
better</w>
ori
ey
ience</w>
ils</w>
zz
han
found</w>
vs</w>
âĻ
post</w>
tic</w>
part</w>
men
rence</w>
cess</w>
vic
sil
shop</w>
ðŁĺĤ</w>
food</w>
val</w>
stic</w>
you
says</w>
elec
star</w>
oc
land
id
ction</w>
field</w>
sof
start</w>
water</w>
friends</w>
ones</w>
ðŁĮ
fla
far
white</w>
party</w>
inst</w>
grou
tv</w>
everyone</w>
ment
ja
cha
prin
ants</w>
during</w>
lat
lar
west</w>
then</w>
ka
youn
insp
inte
ween</w>
visit</w>
against</w>
rele
head
ces</w>
town</w>
looks</w>
thre
regi
rent</w>
projec
girl</w>
sear
wo
mom
car</w>
hun
publi
di</w>
ple</w>
call</w>
cri
um
ford</w>
perfe
friend</w>
hard</w>
ssion</w>
test</w>
playing</w>
around</w>
because</w>
kets</w>
meet</w>
satur
arti
work
jun
ven</w>
run
member</w>
port
super
twit
sam
els</w>
tly</w>
adv
ative</w>
ath</w>
sure</w>
avail
lar</w>
squ
ards</w>
event</w>
men</w>
ll
over
logy</w>
ital</w>
times</w>
mal
back
coo
making</w>
stru
âģ
itu
shar
gan</w>
cas
sn
summer</w>
picture</w>
fan
hin
christmas</w>
cy</w>
proud</w>
champi
design</w>
pping</w>
hope</w>
ca</w>
available</w>
may
wed
photograph
special</w>
sale</w>
stop</w>
ery</w>
awe
ality</w>
history</w>
ama</w>
presi
bru
working</w>
done</w>
dr</w>
ken</w>
feat
wood</w>
atest</w>
sunday</w>
movi
vely</w>
sle
face</w>
spec
students</w>
by
ham</w>
spon
business</w>
dat
ie</w>
ip
soci
glo
hand
recor
rs</w>
mee
keep</w>
pur
health</w>
she
comple
god</w>
davi
collec
list
ra</w>
club</w>
ters</w>
inclu
things</w>
plan
âĺ
john</w>
shing</w>
atul
soon</w>
blue</w>
gor
saturday</w>
won</w>
congratul
see
âĿ¤ï¸ı</w>
those</w>
ðŁĺį</w>
final</w>
dou
ith</w>
own</w>
road</w>
tour</w>
ast
india</w>
til</w>
nd</w>
fer
favor
sul
learn</w>
fire</w>
just
group</w>
ah
rac
body</w>
ur</w>
care</w>
à¸
plo
oh</w>
pos
give</w>
tech
sub
cent
ering</w>
ym
ility</w>
fic
london</w>
vir
guys</w>
ba</w>
ðŁ¤
baby</w>
scre
ðŁĺį
trump</w>
under</w>
change</w>
ian</w>
colle
sses</w>
ler</w>
ssed</w>
nice</w>
announ
power</w>
sar
aking</w>
mini
sli
swee
kar
ful
cru
action</w>
ather</w>
).</w>
stand
devel
aa
gan
left</w>
lol</w>
rel
trans
ments</w>
int
ef</w>
manag
dig
gener
down
pau
tiv
ku
thur
ken
ston</w>
fans</w>
talk</w>
tweet</w>
too
style</w>
prote
secon
fron
awesome</w>
gl
pal
net
sor
lau
gon
since</w>
tty</w>
series</w>
memor
beli
film</w>
did
dies</w>
ot
congratulations</w>
pra
eve</w>
woo
official</w>
suc
incre
bon
part
pped</w>
class</w>
sive</w>
boy</w>
cul
perfect</w>
tou
dam
welcome</w>
football</w>
hi</w>
pap
wait</w>
ada</w>
congrats</w>
young</w>
excited</w>
rece
jan
va</w>
red
stra
media</w>
'd</w>
does</w>
let
mul
ills</w>
green</w>
mel
toge
future</w>
yester
versity</w>
form</w>
tain</w>
ide
ches</w>
kids</w>
qui
haha
deta
big
favorite</w>
girls</w>
contin
dom</w>
search</w>
ual</w>
air</w>
ders</w>
month</w>
cer</w>
yesterday</w>
community</w>
ade</w>
dog</w>
ville</w>
ices</w>
deli
syste
run</w>
ism</w>
heart</w>
cup</w>
enti
few</w>
president</w>
eds</w>
until</w>
festi
ok
flo
said</w>
ole</w>
med
travel</w>
Â£</w>
phone</w>
together</w>
fast</w>
lot</w>
games</w>
shir
between</w>
yes</w>
thers</w>
doing</w>
mac
ator</w>
band</w>
follow
project</w>
develop
diffe
confe
speci
cast</w>
ys
board</w>
rd</w>
ial</w>
shoo
ram
having</w>
share</w>
follow</w>
one
name</w>
mr</w>
put</w>
discu
ory</w>
came</w>
ous
site</w>
twitter</w>
tb
tit
finally</w>
zed</w>
super</w>
compan
using</w>
alls</w>
list</w>
ris</w>
shot</w>
gal
tar
del</w>
john
âĢĶ</w>
something</w>
ram</w>
intere
whe
bit</w>
ðŁį
street</w>
ound
ai
tickets</w>
movie</w>
real
ky
taking</w>
opp
cc</w>
lam
moun
inve
black
used</w>
online</w>
yor
local</w>
gue
cks</w>
ow
gest</w>
boys</w>
illion</w>
cont
reci
ined</w>
euro
now
seen</w>
ph</w>
teach
def
south</w>
such</w>
award</w>
must</w>
issu
care
feel</w>
plu
latest</w>
sports</w>
web
tex
ement</w>
sk</w>
fic</w>
wan
tech</w>
ot</w>
box</w>
ner
free
tal</w>
ash
case</w>
hot</w>
wonder
meeting</w>
era</w>
chall
ðŁĲ
job</w>
ili
cool</w>
jour
ths</w>
mo</w>
fel
die</w>
micha
ele
team
service</w>
stand</w>
makes</w>
ping</w>
early</w>
comes</w>
ek</w>
holi
vers</w>
ague</w>
sau
three</w>
monday</w>
fashi
someone</w>
thro
sea</w>
bad</w>
suppor
turn</w>
ury</w>
ming</w>
photography</w>
nic
mark</w>
pretty</w>
ssing</w>
watching</w>
memb
arri
county</w>
beach</w>
fran
center</w>
police</w>
bat
public</w>
tan
press</w>
saf
sy</w>
gets</w>
roy
ners</w>
your
buy</w>
sters</w>
show
ased</w>
childre
afric
ines</w>
space</w>
scri
hall</w>
pain
aring</w>
home
mur
health
ched</w>
sand
recei
guy</w>
ea
american</w>
resi
children</w>
--
iri
ington</w>
country</w>
ross</w>
len</w>
anna</w>
books</w>
bc</w>
ece</w>
dom
lovely</w>
kh
pet
gy
gri
stage</w>
office</w>
rock</w>
mon</w>
bay</w>
table</w>
sun</w>
med</w>
thin
lor
flow
(@</w>
university</w>
store</w>
front</w>
good
za</w>
vote</w>
north</w>
hey</w>
anim
order</w>
mid
without</w>
ade
remember</w>
market</w>
??</w>
mus
training</w>
educ
but
cover</w>
stan
scen
bla
break
lou
same</w>
gold</w>
ain</w>
os
both</w>
lit
vern
ai</w>
albu
pa</w>
enjoy</w>
beg
elling</w>
thursday</w>
info</w>
san</w>
america</w>
hair</w>
tel</w>
march</w>
concer
college</w>
conference</w>
app</w>
hour</w>
chang
âļ
sour
ols</w>
weather</w>
war</w>
phi
festival</w>
second</w>
cute</w>
prac
ener
stry</w>
lea
polit
sav
sen</w>
ow</w>
mi</w>
near</w>
ought</w>
ze
coffe
willi
dan
sey</w>
david</w>
ese</w>
fan</w>
deci
theat
nov
ation
trac
sci
review</w>
cel
em</w>
un</w>
july</w>
orig
tion
dru
former</w>
stay</w>
after
inv
took</w>
data</w>
bal</w>
tues
dan</w>
evening</w>
ðŁĺĤðŁĺĤ
dol
ures</w>
provi
ts
est
sign</w>
jac
uk
song</w>
yet</w>
bow
indu
jap
hoo
point</w>
anyone</w>
zy</w>
ist</w>
hur
ital
building</w>
woman</w>
chur
jer
perfor
coach</w>
league</w>
cess
net</w>
imag
nation
brit
que</w>
awards</w>
ages</w>
works</w>
ced</w>
mance</w>
late</w>
ign</w>
money</w>
true</w>
ii</w>
tell</w>
plac
pac
asy</w>
world
behin
import
reading</w>
gram</w>
giving</w>
met</w>
hit</w>
forward</w>
stom
present
june</w>
social</w>
noon</w>
mart
half</w>
swe
govern
ker
details</w>
lish</w>
__
acy</w>
sia</w>
bert</w>
fall</w>
!!!!</w>
),</w>
thi
diti
sport</w>
king
fit
staf
cat</w>
muse
centr
yer</w>
contro
bloo
walk</w>
actu
didn</w>
lim
learning</w>
research</w>
wedne
auth
hours</w>
ky</w>
far</w>
hen
....
itch
ril</w>
strong</w>
sky</w>
questi
james</w>
ron
dg
fur
cin
does
appro
marke
tures</w>
fully</w>
chat</w>
behind</w>
tem
fini
mission</w>
batt
feel
heav
everything</w>
bar</w>
wish</w>
premi
ima
experience</w>
each</w>
report</w>
sweet</w>
tics</w>
spring</w>
respon
system</w>
victor
lin</w>
saw</w>
already</w>
ghter</w>
fle
ãĥ
bring</w>
album</w>
--</w>
ells</w>
stan</w>
tom</w>
international</w>
went</w>
anni
match</w>
pper</w>
stone</w>
small</w>
rain</w>
fashion</w>
area</w>
van
agram</w>
ko</w>
thought</w>
worth</w>
van</w>
mer</w>
coffee</w>
ites</w>
gn
artist</w>
con</w>
arch
cir
secre
ground</w>
iso
hand</w>
com</w>
bridge</w>
hs</w>
xi
link</w>
pul
spl
race</w>
fli
river</w>
gas</w>
disco
dal
player</w>
fit</w>
photos</w>
ity
ok</w>
jor
tra</w>
april</w>
ads</w>
adi
solu
beauty</w>
door</w>
mess
update</w>
alia</w>
scho
ened</w>
moment</w>
scot
science</w>
ior</w>
ties</w>
across</w>
ously</w>
shes</w>
doesn</w>
page</w>
water
million</w>
classi
lic
cast
formation</w>
michael</w>
ello</w>
smo
ints</w>
vision</w>
opening</w>
ldn</w>
austr
tuesday</w>
winner</w>
possi
round</w>
shirt</w>
dit</w>
bo</w>
ues</w>
illed</w>
along</w>
trip</w>
starting</w>
impro
kan
person</w>
not
reco
needs</w>
cle</w>
lie</w>
rest</w>
ring</w>
winter</w>
simp
mom</w>
beer</w>
face
tors</w>
usa</w>
collection</w>
geor
session</w>
trying</w>
las</w>
lake</w>
jen
origin
student</w>
secur
vin</w>
pics</w>
expe
comp
gonna</w>
equ
bad
ley
au</w>
members</w>
break</w>
wall</w>
gic</w>
dinner</w>
bul
inspir
ri</w>
mind</w>
ica</w>
winning</w>
talking</w>
tren
sis</w>
ten</w>
wonderful</w>
snow</w>
hear</w>
thom
nothing</w>
gui
stin
blog</w>
fest</w>
bun
lee</w>
wards</w>
chance</w>
dress</w>
ren</w>
paul</w>
pes</w>
techno
russi
card</w>
east</w>
mari
wine</w>
ti</w>
law</w>
stric
ki</w>
ape</w>
augu
profe
ash</w>
course</w>
mail</w>
rently</w>
dun
mun
love
island</w>
drive</w>
sl
ended</w>
main</w>
lost</w>
nature</w>
âĿ¤ï¸ı
chic
repor
pin
pro</w>
station</w>
cep
takes</w>
company</w>
goes</w>
ond</w>
mach
radio</w>
dad</w>
rock
ja</w>
pay
champion
ee
inde
tta</w>
atic</w>
tab
believe</w>
energy</w>
zi
tat
word</w>
once</w>
resul
yl
andre
ano</w>
instagram</w>
close</w>
tam
custom
wa</w>
conom
shows</w>
life
kin</w>
rob
tage</w>
nation</w>
almost</w>
listen</w>
save</w>
reli
ace
mary</w>
tree</w>
forget</w>
jack
waiting</w>
director</w>
hill</w>
born</w>
temp
fl</w>
ste</w>
ona</w>
single</w>
wednesday</w>
united</w>
ino</w>
@_</w>
nel</w>
celebrate</w>
ending</w>
deal</w>
ji</w>
canada</w>
huge</w>
track</w>
âĢ¢</w>
fy</w>
fanta
ang</w>
york</w>
release</w>
pun
episo
words</w>
tour
pack
igh
classic</w>
performance</w>
ket
afternoon</w>
record</w>
wins</w>
proble
âĿ¤</w>
four</w>
bed</w>
bank</w>
dance</w>
sla
called</w>
might</w>
ap</w>
past</w>
ðŁļ
different</w>
ite
gift</w>
ssive</w>
church</w>
cus</w>
program</w>
hotel</w>
ice
mad
security</w>
enge</w>
dc</w>
enough</w>
sta</w>
ety</w>
dead</w>
gun
hear
mir
human</w>
gress</w>
ounds</w>
piece</w>
breaking</w>
garden</w>
fight</w>
views</w>
fish</w>
started</w>
running</w>
green
seri
sm</w>
ask</w>
dor
death</w>
econom
eri
ird</w>
ser</w>
lunch</w>
âģ¦
box
natu
base
ban</w>
fal
global</w>
wild
wow</w>
outside</w>
move</w>
lead</w>
anal
museum</w>
ong
haw
power
thank
bac
charac
campa
digital</w>
ro</w>
oper
dev
wol
pati
fa</w>
male</w>
paper</w>
illing</w>
cs</w>
âĥ
education</w>
taken</w>
effe
mou
sad
".</w>
based</w>
staff</w>
including</w>
living</w>
ac</w>
china</w>
mob
storm</w>
luck</w>
phil
oo</w>
yn
travel
kel
tial</w>
price</w>
book
important</w>
bio
pool</w>
nyc</w>
fab
load</w>
?!</w>
challenge</w>
cry
serve</w>
wear</w>
bus</w>
tain
number</w>
ror</w>
kat
iz
though</w>
hosp
mm</w>
fair</w>
utes</w>
hot
pop</w>
fied</w>
camp
development</w>
libr
cali
ems</w>
âģ¦@</w>
bol
ised</w>
standing</w>
model</w>
ita</w>
gle</w>
brown</w>
image</w>
vered</w>
force</w>
oil</w>
partic
shu
daily</w>
law
sec
class
camp</w>
holiday</w>
clin
kers</w>
present</w>
game
incredi
ership</w>
interview</w>
bill</w>
due</w>
andy</w>
abo
innov
key
acade
pil
moder
stars</w>
brand</w>
fer</w>
weeks</w>
consi
pre</w>
safe
writ
dium</w>
launch</w>
marketing</w>
annual</w>
assi
court</w>
lady</w>
cted</w>
anda</w>
inside</w>
child</w>
oppor
smith</w>
centre</w>
gue</w>
âģ©</w>
fren
sty</w>
fort</w>
ently</w>
isn</w>
keep
tober</w>
ony</w>
boy
ald</w>
colla
demo
level</w>
compet
ado</w>
bour
fantastic</w>
mate</w>
su</w>
south
opportun
versary</w>
later</w>
bud
facebook</w>
laun
stern</w>
pit
!"</w>
maj
gram
tbt</w>
fire
happy
aks</w>
whole</w>
actually</w>
iller</w>
ella</w>
lots</w>
alex
ange
lands</w>
ðŁĺŃ
enter
rou
episode</w>
ped</w>
inten
shire</w>
who
plan</w>
ho</w>
cake</w>
west
magaz
fresh</w>
cc
nar
chris</w>
writing</w>
wer</w>
nom
lo</w>
midd
dream</w>
ol</w>
tional</w>
deb
>></w>
become</w>
si</w>
grand</w>
alling</w>
histor
ride</w>
ired</w>
safe</w>
queen</w>
cil</w>
intro
vil</w>
dani
...
artic
stat
short</w>
oring</w>
selfi
missi
doc
bit
gall
bom
ire
selec
dition</w>
ðŁĶ¥</w>
friend
beat</w>
ghting</w>
ðŁĺĬ</w>
peace</w>
exhi
anta</w>
ability</w>
illu
jon
quality</w>
tribu
mes</w>
players</w>
fair
cut</w>
cab
success</w>
bi</w>
sus</w>
promo
sche
ange</w>
ico</w>
commit
catch</w>
illa</w>
kind</w>
feeling</w>
quo
say
anniversary</w>
spot</w>
mother</w>
ane</w>
pend
yourself</w>
ops</w>
apple</w>
minutes</w>
po</w>
grand
ries</w>
haha</w>
career</w>
edition</w>
dec
rick</w>
ami</w>
concert</w>
itive</w>
geous</w>
dly</w>
tte</w>
advent
ig</w>
lights</w>
aker</w>
sky
âĥ£</w>
ray</w>
finished</w>
way
sd
accoun
ðŁĴķ</w>
cky</w>
chel
liter
painting</w>
los</w>
stun
technology</w>
nas
mar</w>
bil
africa</w>
kie</w>
eyes</w>
golf</w>
plus</w>
nia</w>
itec
services</w>
wedding</w>
known</w>
tele
.....</w>
starts</w>
paren
wants</w>
ational</w>
months</w>
windo
favour
ert</w>
magazine</w>
exclu
reve
bc
original</w>
ess
nal</w>
anti
stro
tice</w>
study</w>
à¤
vac
national
five</w>
rain
vement</w>
ute</w>
verse</w>
emer
army</w>
possible</w>
guess</w>
valley</w>
thern</w>
crow
mr
color</w>
onto</w>
pick</w>
clear</w>
dark</w>
tac
wanted</w>
itting</w>
cancer</w>
government</w>
die
rise</w>
zing</w>
cold</w>
foun
studio</w>
stration</w>
brother</w>
ahead</w>
shel
micro
ically</w>
dau
signed</w>
viol
ax
asse
io
wre
splay</w>
chick
august</w>
plat
tips</w>
spi
human
easy</w>
logi
mike</w>
grow
agre
ww
shad
motiv
wide</w>
turns</w>
omg</w>
var
defin
sug
jim
ðŁĶ¥
td</w>
campaign</w>
named</w>
retweet</w>
cop
tv
leav
kis
double</w>
smar
issue</w>
villa
information</w>
lies</w>
stock</w>
nt</w>
distric
shor
mix
ero
sep
mex
seeing</w>
live
remin
code</w>
gur
sc</w>
wild</w>
lun
hood</w>
spot
father</w>
forever</w>
upd
traf
fly</w>
need
gradu
train</w>
make
sab
bey
size</w>
leader</w>
talks</w>
eu</w>
log
fox</w>
gorgeous</w>
less
lets</w>
surpri
myself</w>
note</w>
lives</w>
fru
loved</w>
sever
dem
ji
soc
hold</w>
dogs</w>
ni</w>
âŀ
leave</w>
airport</w>
benef
expl
ships</w>
complete</w>
achi
great
vintage</w>
jack</w>
roc
wood
priv
offer</w>
eye</w>
version</w>
tea</w>
coach
offic
well
gen</w>
sat</w>
hh
youth</w>
ox
?"</w>
mt</w>
mix</w>
gg</w>
dle</w>
natural</w>
build</w>
breakfast</w>
thinking</w>
theatre</w>
moon</w>
berg</w>
goals</w>
george</w>
ene
excell
iling</w>
tune</w>
yed</w>
gate</w>
mit
network</w>
joe</w>
hello</w>
fb</w>
tube</w>
wearing</w>
athle
struc
hard
glass</w>
gers</w>
throw
ges</w>
bt
industry</w>
management</w>
alist</w>
goal</w>
stream</w>
yel
avi
icious</w>
others</w>
ski
christi
bird</w>
esc
min</w>
tro</w>
lt</w>
jan</w>
imp
rights</w>
sha</w>
organ
central</w>
ara</w>
roll</w>
favourite</w>
chester</w>
else</w>
pay</w>
cars</w>
mine</w>
step</w>
practice</w>
major</w>
hang
ðŁĺĺ</w>
non</w>
vari
engine
volun
dia</w>
iled</w>
architec
pink</w>
ds
thy</w>
wash
website</w>
bag</w>
control</w>
elli
fra
answ
dence</w>
yu
ron</w>
ola</w>
gin
drin
lic</w>
couple</w>
spar
gon</w>
create</w>
ct
celebrating</w>
deep</w>
eat</w>
tee</w>
voice</w>
drop</w>
visit
ators</w>
stadium</w>
ft
wis
rol
grade</w>
famil
points</w>
repre
was
traffic</w>
japan</w>
org
honor</w>
texas</w>
manu
âĻ¥</w>
safety</w>
rer</w>
bag
emplo
released</w>
regu
aka</w>
nav
role</w>
senior</w>
spect</w>
cross</w>
lines</w>
best
pack</w>
sin</w>
tie</w>
missing</w>
sunset</w>
liber
ising</w>
jay
ski</w>
championship</w>
activ
ladies</w>
played</w>
yy
publ
alo
pride</w>
sr
paki
lux
survi
cked</w>
ets</w>
chocol
australia</w>
paris</w>
miles</w>
hat
mental</w>
ala</w>
mean</w>
mobile</w>
ena</w>
insi
found
chief</w>
tag
incredible</w>
return</w>
Ã©
google</w>
french</w>
crew</w>
hallo
alian</w>
jaz
cher</w>
silver</w>
north
english</w>
baseball</w>
caf
limited</w>
following</w>
appreci
earth</w>
kir
vember</w>
wed</w>
ption</w>
ged</w>
october</w>
flori
cr</w>
ency</w>
gave</w>
lord</w>
stuff</w>
berry</w>
post
smile</w>
broad
state
gger</w>
means</w>
icy</w>
gun</w>
yo</w>
master</w>
burg</w>
hands</w>
nie</w>
//</w>
union</w>
british</w>
biggest</w>
district</w>
aming</w>
hil
oce
person
pass</w>
envir
schools</w>
arrived</w>
ances</w>
inspired</w>
expla
ben</w>
library</w>
bott
amp
steph
contact</w>
bang
ms
califor
told</w>
battle</w>
bb</w>
chicago</w>
âľ¨</w>
strate
shi</w>
dece
-)</w>
add</w>
lab
jones</w>
legend</w>
castle</w>
inger</w>
stance</w>
bel</w>
ura</w>
refu
leaders</w>
pot
sex
hic
article</w>
kid</w>
france</w>
xx</w>
exe
guide</w>
volunte
print</w>
ali</w>
ceo</w>
tweets</w>
wx</w>
scene</w>
volu
anti</w>
han</w>
associ
sharing</w>
rose</w>
minister</w>
sher
inste
clean
democr
poster</w>
skin</w>
psy
proper
crazy</w>
iam
ore
ini</w>
anything</w>
pod
moving</w>
click</w>
explo
comb
craft</w>
fi</w>
blood</w>
isra
public
dent
olym
england</w>
asi
cher
fact</w>
environ
harry</w>
gone</w>
medic
enjoying</w>
justice</w>
jr</w>
indian</w>
wife</w>
sound</w>
tes</w>
drawing</w>
pal</w>
idea</w>
crit
juli
iler</w>
warm</w>
clar
thoughts</w>
defen
council</w>
introduc
died</w>
janu
ani</w>
send</w>
lier</w>
ml
interesting</w>
trade</w>
wind</w>
bay
sac
ancy</w>
source</w>
bes</w>
organi
arly</w>
large</w>
ffici
tag</w>
ut</w>
desp
oes</w>
title</w>
sym
pictures</w>
open
women
showing</w>
ria</w>
least</w>
leadership</w>
current</w>
electr
valent
listening</w>
ckey</w>
general</w>
deser
duce</w>
;)</w>
cent</w>
ðŁĺįðŁĺį
scott</w>
poor</w>
selfie</w>
events</w>
ion</w>
wrong</w>
dev</w>
hill
septe
culture</w>
line
sorry</w>
sent</w>
sister</w>
cept</w>
kri
november</w>
ari</w>
announce</w>
zation</w>
bran
gent
du</w>
len
pers
fm</w>
martin</w>
op</w>
emb
ome
middle</w>
success
peter</w>
january</w>
flu
racing</w>
dav
bike</w>
ðŁı»</w>
pet</w>
shoot</w>
professi
featuring</w>
september</w>
nowplaying</w>
staur
za
onic</w>
quick</w>
baske
speaking</w>
milit
zer</w>
chicken</w>
bell</w>
sad</w>
coast</w>
loving</w>
yers</w>
dj</w>
panel</w>
verage</w>
swit
icks</w>
bou
california</w>
sam</w>
parents</w>
ero</w>
killed</w>
phys
jobs</w>
migr
anth
emo
halloween</w>
ander
cm</w>
competition</w>
eag
sket
spir
maybe</w>
exclusive</w>
appe
journey</w>
screen</w>
ford
io</w>
hate</w>
ug
soul</w>
hero</w>
society</w>
syn
guit
nh
dj
ases</w>
impre
time
sales</w>
dd</w>
fts</w>
summit</w>
stunning</w>
oms</w>
turned</w>
clean</w>
soft</w>
beat
restaur
dered</w>
ences</w>
magic</w>
dio
shine</w>
guest</w>
healthy</w>
exhib
stories</w>
popu
nis</w>
ela</w>
below</w>
funny</w>
results</w>
sne
currently</w>
ard
download</w>
flight</w>
mal</w>
fine</w>
pad
chu
ented</w>
hat</w>
ðŁĳı
steve</w>
jo</w>
mark
rat
ball
pc</w>
pon
bby</w>
oli
arts</w>
asure</w>
bowl</w>
attack</w>
mic</w>
dear</w>
range</w>
enter</w>
chocolate</w>
brilli
access</w>
,"</w>
???</w>
chap
const
tn
matter</w>
blue
gallery</w>
emp
workshop</w>
leading</w>
yours</w>
basketball</w>
wanna</w>
thu
__</w>
marri
sleep</w>
bia</w>
che</w>
mad</w>
impact</w>
own
sir</w>
channel</w>
europe</w>
esp
kitch
hospital</w>
wra
royal</w>
fs</w>
neu
quar
ney
acks</w>
chase</w>
ppy</w>
stal
ately</w>
tim</w>
december</w>
rare</w>
perform
cream</w>
weight</w>
choo
night
haven</w>
franc
khan</w>
built</w>
helping</w>
trust</w>
type</w>
golden</w>
tax</w>
snow
swi
disa
questions</w>
vey</w>
light
cn
cloud</w>
thomas</w>
aged</w>
shou
teams</w>
gran
reason</w>
aa</w>
youtube</w>
vp</w>
pizz
manager</w>
bury</w>
credit</w>
treat</w>
max</w>
ik
main
ging</w>
dead
probab
yeah</w>
ãĤ
brand
soli
plant</w>
tayl
girl
ðŁĺŃ</w>
nament</w>
auto
message</w>
kore
nur
terr
agu
map</w>
senting</w>
loves</w>
gives</w>
gab
zen</w>
robert</w>
confir
wars</w>
om</w>
stain
camera</w>
ander</w>
wonder</w>
ab</w>
cap</w>
sold</w>
suit</w>
walking</w>
continue</w>
effec
daughter</w>
danc
chain</w>
multi
kid
yan
champion</w>
vo</w>
tains</w>
host</w>
mini</w>
missed</w>
resc
lyn
finish</w>
delicious</w>
sas
taylor</w>
ib
promis
products</w>
mountain</w>
florida</w>
register</w>
treat
recent</w>
female</w>
booth</w>
matt</w>
vehic
sop
motor
supporting</w>
phic</w>
extre
drink</w>
lane</w>
third</w>
ps
constru
cere
farm</w>
ðŁİī</w>
tured</w>
ðŁĳī</w>
cats</w>
aj
gie</w>
shooting</w>
asked</w>
pakistan</w>
ame
mb</w>
gil
legal</w>
square</w>
invol
draw</w>
oooo
!!!!
opportunity</w>
py
ei
bts</w>
teacher</w>
character</w>
johnson</w>
bron
lywood</w>
chine
cing</w>
cine
dge
gaming</w>
russia</w>
cia</w>
quote</w>
rich</w>
gov
flowers</w>
spiri
stin</w>
growth</w>
ðŁı¼</w>
commer
juni
mum</w>
ran</w>
sna
aren
cb
actor</w>
color
sit</w>
pair</w>
chi</w>
bow</w>
academy</w>
held</w>
rang
metal</w>
yl</w>
active</w>
probably</w>
tch</w>
needed</w>
spee
choice</w>
italy</w>
ryan</w>
ðŁĩº
flower</w>
vit
mn</w>
foundation</w>
bak
sions</w>
neigh
floo
heard</w>
remo
fresh
inging</w>
ref
town
clou
jesus</w>
spirit</w>
couldn</w>
zes</w>
ðŁĴĻ</w>
williams</w>
proce
modern</w>
process</w>
shoes</w>
created</w>
tric</w>
issues</w>
anne</w>
atten
debut</w>
hr</w>
nit
stig
apo
eps</w>
zu
ãĢ
six</w>
cards</w>
langu
famous</w>
tournament</w>
sel</w>
ebay</w>
yn</w>
ston
kick
announced</w>
kam
voc
brilliant</w>
house
cheese</w>
warri
music
hockey</w>
ðŁĺĤðŁĺĤ</w>
skills</w>
autom
smart</w>
medical</w>
mony</w>
ex</w>
guar
give
personal</w>
vention</w>
alli
press
floor</w>
mc</w>
victory</w>
him
simple</w>
thor
ðŁĩºðŁĩ
tail</w>
lucky</w>
alex</w>
quite</w>
bot
ssions</w>
challeng
cann
amazon</w>
hell</w>
bought</w>
):</w>
edy</w>
secret</w>
production</w>
independ
defe
added</w>
pr</w>
pag
bed
greatest</w>
within</w>
jay</w>
ðŁ¥
ireland</w>
rely</w>
sd</w>
text</w>
driving</w>
program
speed</w>
colum
stron
Ã©</w>
forest</w>
âĸ
machine</w>
coin</w>
scar
ount</w>
bie</w>
¡ï¸ı</w>
portra
common</w>
wrest
received</w>
know
invest
plans</w>
accor
adop
tery</w>
reali
pp</w>
kal
artwork</w>
mean
god
instead</w>
anci
motivation</w>
asing</w>
inspiration</w>
upcoming</w>
political</w>
europe
mers</w>
heavy</w>
ðŁĳį</w>
febru
scotland</w>
ough
bt</w>
boss</w>
schedu
speak</w>
nick
ured</w>
ino
ek
risk</w>
tory</w>
presents</w>
bon</w>
rug
states</w>
exhibition</w>
ilo
mill
brought</w>
:-)</w>
touri
come
officially</w>
champions</w>
doors</w>
rep
pose</w>
extra</w>
kings</w>
soccer</w>
squad</w>
applic
ata</w>
sometimes</w>
tari
excellent</w>
ðŁĺĺ
straight</w>
carol
rip</w>
âĢį
graphic</w>
mol
election</w>
february</w>
asons</w>
li</w>
dir
mt
nick</w>
usu
mrs</w>
comics</w>
institu
corpor
vi</w>
ðŁĻı
tural</w>
dise
acci
weare
among</w>
shopping</w>
till</w>
what
chair</w>
span
chinese</w>
innovation</w>
joy</w>
kit</w>
century</w>
obama</w>
phili
fc
reach</w>
citi
ulous</w>
non
dang
happening</w>
burn</w>
pel
orange</w>
dv
kick</w>
claim
ingham</w>
phy</w>
nov</w>
podcast</w>
whi
nights</w>
earlier</w>
bear</w>
lah</w>
exciting</w>
ora</w>
given</w>
slo
memories</w>
continues</w>
product</w>
gho
cd
knows</w>
ðŁİī
published</w>
discuss</w>
yard</w>
iphone</w>
tries</w>
wall
feb</w>
aren</w>
truth</w>
winners</w>
ture
ditional</w>
military</w>
problem</w>
mand
dog
loss</w>
cric
canadi
veter
village</w>
",</w>
yr</w>
ung</w>
donald</w>
aging</w>
birds</w>
scienti
les
this
region</w>
tical</w>
itten</w>
ila</w>
ðŁĺİ</w>
dad
diam
above</w>
stren
lit</w>
pir
lab</w>
focus</w>
busy</w>
dur
apply</w>
sma
author</w>
aci
execu
domin
rela
jackson</w>
ato</w>
washington</w>
ðŁĻĮ
kill</w>
popular</w>
cement</w>
road
eating</w>
location</w>
vent
arre
nan
custo
adventure</w>
ordin
sport
ult</w>
lock</w>
question</w>
driver</w>
landsc
oni
kins</w>
pd
jordan</w>
tered</w>
kk
af</w>
child
sp</w>
justin</w>
eni
selling</w>
zo
whit
boston</w>
particip
signing</w>
happened</w>
heat</w>
mam
dreams</w>
lows</w>
graph</w>
theday</w>
heading</w>
bro</w>
blessed</w>
vic</w>
vegas</w>
hd</w>
inning</w>
roman
andro
denti
use
cit
progress</w>
writer</w>
bob</w>
ffs</w>
growing</w>
bly</w>
aware
exam
spent</w>
bet</w>
score</w>
beyond</w>
docu
adel
sf
coura
collabor
inc</w>
private</w>
boat</w>
**</w>
zone</w>
pha
bill
total</w>
planning</w>
towards</w>
places</w>
preview</w>
creative</w>
damn</w>
ideas</w>
seems</w>
poten
saying</w>
display</w>
sw</w>
aqu
louis</w>
bye</w>
lil</w>
email</w>
western</w>
germany</w>
eller</w>
res
fant
mentary</w>
deals</w>
richard</w>
jersey</w>
streng
rad
pizza</w>
mond</w>
ware</w>
lac
gi</w>
archi
cd</w>
yellow</w>
recently</w>
reach
à¹
kitchen</w>
designed</w>
try
gal</w>
restaurant</w>
ature</w>
ww</w>
jas
lma
ðŁĳĮ</w>
pain</w>
avo
minute</w>
schol
therap
ticket</w>
dry</w>
japan
ditions</w>
terri
selves</w>
happen</w>
tup</w>
mag</w>
copy</w>
sher</w>
freedom</w>
file</w>
specially</w>
toronto</w>
load
gary</w>
rey</w>
answer</w>
loy
caught</w>
prize</w>
une
fication</w>
niger
syd
touch</w>
feature</w>
jazz</w>
records</w>
himself</w>
dish</w>
rober
spotted</w>
master
wave</w>
finals</w>
bull
forum</w>
ald
recomm
cha</w>
ae</w>
doo
instru
truly</w>
lg
ink
brothers</w>
dest</w>
jim</w>
mit</w>
closed</w>
ison</w>
tried</w>
santa</w>
affe
wan</w>
horse</w>
grow</w>
campus</w>
relation
native</w>
journ
gov</w>
oct</w>
kit
bound</w>
partner</w>
rema
crowd</w>
!)</w>
calls</w>
rail
quali
solution</w>
contest</w>
convers
snap
base</w>
initi
tax
ye</w>
entrepre
itor</w>
construction</w>
food
presented</w>
nings</w>
climate</w>
km</w>
model
bj
block</w>
presentation</w>
dream
fix
calling</w>
busine
congress</w>
understand</w>
web</w>
value</w>
ï¸ıâĥ£</w>
mexico</w>
itely</w>
kim</w>
charity</w>
reflec
blan
flying</w>
analy
families</w>
band
recipe</w>
celebration</w>
accep
ary
tot
gb</w>
interested</w>
captain</w>
âĻ¥
tip</w>
absol
braz
investig
ology</w>
dec</w>
truck</w>
vering</w>
clear
dont</w>
gotta</w>
advis
begins</w>
mass
descri
block
kim
david
songs</w>
memorial</w>
features</w>
sustain
'.</w>
grab</w>
jose
va
conserv
sets</w>
manchester</w>
fighting</w>
degre
aga</w>
ind</w>
sleep
position</w>
hair
signs</w>
policy</w>
ito</w>
alert</w>
stam
spend</w>
wy
absolut
dm</w>
animal</w>
myster
successful</w>
problems</w>
robo
kay
garden
pd</w>
mayor</w>
dale</w>
tol
offers</w>
visiting</w>
friendly</w>
trees</w>
officer</w>
account</w>
kevin</w>
ðŁĳį
giant</w>
continu
consu
tract</w>
nfl</w>
ðŁĺĬ
hq</w>
bility</w>
aar
disney</w>
teen</w>
oned</w>
white
trailer</w>
dedic
alone</w>
absolutely</w>
digital
william</w>
ination</w>
swa
ee</w>
entire</w>
german</w>
roll
hits</w>
cost</w>
stay
tha</w>
alive</w>
according</w>
cot
literally</w>
herit
reti
hahaha</w>
experi
likes</w>
gt</w>
steel</w>
____
chair
christian</w>
tower</w>
difference</w>
md</w>
tress</w>
mid</w>
prince</w>
african</w>
feder
foot</w>
carri
served</w>
rice</w>
shall</w>
featured</w>
cker</w>
recru
poe
sense</w>
nific
comedy</w>
content</w>
fat
posted</w>
contribu
timate</w>
liver
mble</w>
internet</w>
age
european</w>
cling</w>
glad</w>
ffic
sco</w>
akes</w>
elle</w>
termin
tony</w>
pale
colour</w>
serious</w>
patri
movies</w>
bm
professional</w>
ado
alu
bringing</w>
falls</w>
israel</w>
term</w>
language</w>
brook
mann</w>
communic
cannot</w>
acti
phe
yan</w>
entreprene
turkey</w>
logical</w>
long
arm</w>
urs</w>
workers</w>
ingly</w>
ggs</w>
ric</w>
tual</w>
receive</w>
opens</w>
gear</w>
social
feet</w>
cking</w>
adver
finan
feels</w>
spla
hr
easter</w>
brain</w>
ãģ
fig
ledge</w>
nearly</w>
protect</w>
massive</w>
eth
awa
ðŁĺģ</w>
yrs</w>
awareness</w>
definitely</w>
kn
imagine</w>
ku</w>
systems</w>
ðŁĳı</w>
fas
lik
provide</w>
amo
discover</w>
influ
maker</w>
gaz
fitness</w>
street
ers
ted
wc
ysis</w>
positive</w>
helped</w>
quest</w>
andrew</w>
brad
bin
hanging</w>
ling
bright</w>
section</w>
mass</w>
ðŁĻĮ</w>
followers</w>
hosting</w>
tempor
flag</w>
ave</w>
letter</w>
kur
requi
often</w>
cryp
suff
âļ½
russian</w>
treatment</w>
alle
hay
lan</w>
keeping</w>
holy</w>
powerful</w>
predic
fund</w>
especially</w>
window</w>
jewel
ily
ðŁĴľ</w>
generation</w>
appa
seriously</w>
od
ðŁĺĤðŁĺĤðŁĺĤ</w>
certi
irish</w>
ðŁĳĮ
miami</w>
beth</w>
vity</w>
secu
chef</w>
crime</w>
graphy</w>
max
artists</w>
revolu
guard</w>
speech</w>
uc
updates</w>
faces</w>
stant</w>
changed</w>
reports</w>
lower</w>
pear
nc</w>
kil
looked</w>
speaker</w>
sf</w>
respect</w>
okay</w>
ocean</w>
sitting</w>
architecture</w>
trail</w>
seat</w>
ira
leg</w>
japanese</w>
dam</w>
ular</w>
swim
politics</w>
financial</w>
old
mouth</w>
attemp
destin
fishing</w>
attention</w>
mem
changes</w>
decided</w>
religi
gin</w>
cav
zz</w>
adam</w>
mac</w>
write</w>
begin</w>
scul
alter
iss</w>
athon</w>
images</w>
moo
joined</w>
ðŁĺī</w>
âŀ¡ï¸ı</w>
passed</w>
musli
hir
largest</w>
camer
comic</w>
ghted</w>
rugby</w>
burgh</w>
gging</w>
testing</w>
prepar
laugh
aled</w>
improve</w>
believ
advice</w>
shares</w>
heart
turning</w>
sb</w>
tel
cafe</w>
nes</w>
daniel</w>
patter
tz</w>
sett
park
cand
stick</w>
happens</w>
brian</w>
newest</w>
epic</w>
ador
kies</w>
warning</w>
animals</w>
custom</w>
arc
dian</w>
gold
core</w>
tf</w>
city
pants</w>
reality</w>
confi
inju
fox
guil
knew</w>
âĺº
correc
itude</w>
dden</w>
.#</w>
reduc
pass
fon
ya
owner</w>
returns</w>
nc
east
apol
insur
tho</w>
sim
junior</w>
bee</w>
angel
attle</w>
electric</w>
horror</w>
crash</w>
eye
path</w>
southern</w>
employe
geo
tan</w>
haz
rally</w>
ðŁı»
property</w>
wasn</w>
enjoyed</w>
grey</w>
gas
brew
northern</w>
holding</w>
gp</w>
take
chart</w>
lyn</w>
drama</w>
zo</w>
paid</w>
throwback</w>
cup
discussion</w>
downtown</w>
will
lew
bis
tary</w>
bread</w>
upon</w>
rate</w>
teachers</w>
itation</w>
anced</w>
cycle</w>
choose</w>
dc
iran</w>
cow
dave</w>
raise</w>
princess</w>
faith</w>
-></w>
industri
spain</w>
guitar</w>
facts</w>
mn
spen
courte
gott
projects</w>
audi
osc
peter
sand</w>
interest</w>
happiness</w>
venue</w>
soldi
surprise</w>
potential</w>
perio
customer</w>
ii
gni
manufac
eco
broken</w>
singer</w>
vels</w>
wales</w>
hus
inj
four
talent</w>
dying</w>
matthe
film
joining</w>
sell</w>
jar
lmao</w>
surger
bbc
sources</w>
austin</w>
nik
charles</w>
fam</w>
princi
angel</w>
cash</w>
lot
ored</w>
plays</w>
plate</w>
done
memory</w>
brings</w>
nba</w>
solutions</w>
teaching</w>
grace</w>
circu
helps</w>
founder</w>
mary
explore</w>
decor
parts</w>
cho</w>
integr
hau
ises</w>
putting</w>
iner</w>
rit
vy</w>
michel
blues</w>
everyday</w>
forms</w>
bio</w>
year
pin</w>
tter</w>
spring
))</w>
pot</w>
aling</w>
performing</w>
shan
planet</w>
musical</w>
heads</w>
italian</w>
strugg
âĢįâĻ
wings</w>
pump
hh</w>
trou
aid</w>
prime</w>
earth
paint</w>
mont
amy</w>
bbc</w>
fabulous</w>
fruit</w>
android</w>
bourne</w>
ceremony</w>
ential</w>
??
debate</w>
oning</w>
draft</w>
solar</w>
tx</w>
jam</w>
corn
!!!!!</w>
broo
milk</w>
posed</w>
ohi
movement</w>
bren
partner
pg</w>
ette</w>
aries</w>
shout</w>
ng</w>
leaving</w>
tells</w>
sens
taste</w>
kelly</w>
worl
gym</w>
rich
egy
pid</w>
mas
âĤ
courtesy</w>
frank</w>
increase</w>
written</w>
ppers</w>
rel</w>
hai</w>
sas</w>
sound
tti</w>
wich</w>
river
..."</w>
ag</w>
fellow</w>
rome</w>
small
gency</w>
ican</w>
luxury</w>
proof</w>
met
wildlife</w>
moments</w>
rather</w>
corner</w>
compe
canadian</w>
likely</w>
therapy</w>
liam
economic</w>
indie
route</w>
fight
hope
setting</w>
antly</w>
cross
fantasy</w>
dee
sketch</w>
compli
ymi</w>
rules</w>
engineering</w>
figure</w>
row
.,</w>
fw</w>
sydney</w>
wou
tation</w>
drew</w>
uses</w>
there
spread</w>
structure</w>
patrick</w>
apparently</w>
ros
hills</w>
wwe</w>
anny</w>
commission</w>
div
fying</w>
consul
analysis</w>
exi
tennis</w>
vehicle</w>
ðŁĺŃðŁĺŃ
ass</w>
highly</w>
opened</w>
bann
ðŁĴĻ
mph</w>
wishing</w>
vor</w>
fif
giveaway</w>
rr
ray
jess
gat
icymi</w>
xit</w>
highest</w>
york
pie</w>
involved</w>
higher</w>
rie</w>
malay
intelli
despite</w>
chee
sarah</w>
bean</w>
recogni
arsen
talented</w>
passion</w>
ich
abc</w>
leads</w>
disease</w>
vis</w>
sec</w>
presenting</w>
milli
hole</w>
shots</w>
depart
surgery</w>
govt</w>
bin</w>
dual</w>
evi
longer</w>
evol
screen
portrait</w>
etc</w>
lose</w>
chat
pen</w>
pi</w>
oma</w>
sick</w>
erc
companies</w>
entry</w>
plane</w>
gry</w>
vene
liverpool</w>
premiere</w>
shared</w>
ared</w>
films</w>
ira</w>
holidays</w>
cricket</w>
ician</w>
ving
.)</w>
ultimate</w>
division</w>
conduc
sept</w>
forces</w>
mont</w>
smart
disapp
sunshine</w>
ind
bless</w>
made
colors</w>
frank
iron</w>
bottle</w>
sgo
mood</w>
jason</w>
eric</w>
birth</w>
teen
response</w>
target</w>
statement</w>
fear</w>
thel
alum
arab
blin</w>
direction</w>
steps</w>
erial</w>
worked</w>
atl
ðŁĴķ
felt</w>
poli</w>
scenes</w>
homes</w>
bell
eat
ateful</w>
tin</w>
lace</w>
folks</w>
pse</w>
ann</w>
wisdom</w>
fav</w>
butter
sr</w>
areas</w>
smoo
biz</w>
dges</w>
appo
more
them
effect</w>
windows</w>
sunny</w>
capital</w>
totally</w>
cities</w>
grant</w>
mbers</w>
slow</w>
autu
ilities</w>
wro
rising</w>
stics</w>
violence</w>
igh</w>
quot
hit
tc</w>
heritage</w>
buff
nes
zar
dential</w>
exac
edge</w>
deep
arena</w>
became</w>
benefits</w>
marks</w>
mber
az</w>
ames</w>
preci
dragon</w>
reg
dings</w>
dos</w>
ðŁĴª
nel
sity</w>
meal</w>
dist
legend
purchase</w>
pical</w>
stick
fat</w>
duba
profess
carto
prof</w>
countries</w>
responsi
sequ
fab</w>
tribute</w>
honored</w>
practic
purple</w>
anton
pared</w>
tough</w>
summer
environment</w>
sons</w>
ðŁĻı</w>
mps</w>
gies</w>
heroes</w>
telling</w>
henry</w>
fen
knowledge</w>
Ģï¸ı</w>
fr</w>
neg
ure
acking</w>
hearts</w>
soo
hollywood</w>
jump
sauce</w>
schedule</w>
turn
yoga</w>
creating</w>
cket</w>
creek</w>
âŃ
customers</w>
madri
gul
assemb
mount</w>
cell</w>
top
stal</w>
davis</w>
twi
sign
premier</w>
itions</w>
hearing</w>
unk</w>
patients</w>
appear
heaven</w>
alty</w>
doctor</w>
ae
platform</w>
jeff</w>
ðŁĵ·</w>
regional</w>
bid</w>
boxing</w>
exten
ority</w>
aw</w>
wise</w>
ille</w>
several</w>
bie
situ
syria</w>
âľħ</w>
reminder</w>
entertain
lion</w>
partners</w>
inn</w>
phar
fau
pls</w>
expected</w>
sugar</w>
decision</w>
sb
chron
association</w>
leaves</w>
visited</w>
shap
ðŁĴĸ</w>
further</w>
hann
wi</w>
runs</w>
ler
funding</w>
filled</w>
......</w>
tiny</w>
hang</w>
org</w>
cool
semin
ðŁıĨ</w>
spons
navy</w>
saint</w>
drug</w>
dal</w>
roun
covered</w>
traditional</w>
investment</w>
dete
alism</w>
flow</w>
nis
sunrise</w>
feat</w>
fted</w>
weird</w>
jere
vegan</w>
medicine</w>
ano
accu
delivery</w>
temple</w>
changing</w>
wilson</w>
philipp
refe
nd
iser</w>
gay</w>
rand
atives</w>
tely</w>
pand
intellig
gare
ambas
demon
committee</w>
strategy</w>
refuge
budget</w>
protec
pier
express</w>
nomin
economy</w>
allow
icon</w>
galax
oh
indivi
demand</w>
virgin
luke</w>
alists</w>
mani
smi
judge</w>
enty</w>
michi
result</w>
amed</w>
speaks</w>
',</w>
houston</w>
shin
bing</w>
fly
chem
auto</w>
vas
get
arm
thanks
din</w>
gang</w>
xx
sion
located</w>
pl</w>
josh</w>
info
joins</w>
adverti
otd</w>
eld</w>
sie</w>
reasons</w>
vent</w>
ðŁĩºðŁĩ¸</w>
âł
conversation</w>
studi
ðŁĶ¥ðŁĶ¥
gos</w>
sounds</w>
unit</w>
musc
gel</w>
acked</w>
paci
cos</w>
dere
uu
ao</w>
lam</w>
inspiring</w>
arms</w>
tware</w>
matters</w>
addic
dude</w>
ext
crisis</w>
bath</w>
meet
singh</w>
expect</w>
delhi</w>
rescue</w>
worst</w>
aug</w>
shipping</w>
serving</w>
sto</w>
dark
aces</w>
historic</w>
landscape</w>
designer</w>
billion</w>
grateful</w>
wake</w>
eve
miller</w>
housing</w>
dynam
isco</w>
beha
shop
prou
eas
asia</w>
eding</w>
kon
department</w>
awar
marine</w>
inci
photographer</w>
tape</w>
logo</w>
rings</w>
dit
----
vinyl</w>
wc</w>
voting</w>
seven</w>
ambassad
dallas</w>
tu</w>
comment</w>
kra
bles</w>
wag
ud</w>
audio</w>
strike</w>
official
ots</w>
metho
tools</w>
radi
alan</w>
hunt</w>
watched</w>
ake</w>
fake</w>
drinking</w>
merry</w>
ml</w>
bday</w>
rio</w>
nike</w>
cant</w>
repe
costu
murder</w>
akers</w>
chers</w>
outs</w>
beginning</w>
sos</w>
ades</w>
nin
notes</w>
wrote</w>
solo</w>
ci</w>
lighting</w>
urban</w>
brexit</w>
attend</w>
shirts</w>
playo
actress</w>
plic
standard</w>
quotes</w>
parade</w>
ancient</w>
Â©</w>
turing</w>
ree</w>
primary</w>
flash</w>
citiz
mates</w>
stein</w>
zi</w>
clinton</w>
skin
gene
hum
gar</w>
tle</w>
yi
focu
dean</w>
plants</w>
cyber
bu</w>
ome</w>
hop</w>
address</w>
tix</w>
gifts</w>
relationship</w>
subscri
feed</w>
exactly</w>
hawks</w>
exo</w>
stress</w>
sn</w>
arrested</w>
ane
software</w>
zero</w>
theme</w>
mumb
immigr
mia</w>
makeup</w>
pleasure</w>
univers
harb
engine</w>
aper</w>
rin
bra</w>
institute</w>
leather</w>
alth</w>
singing</w>
cos
ghty</w>
meas
stic
side
insurance</w>
cot</w>
pitch</w>
mountains</w>
crimin
supre
valentine</w>
ater</w>
wouldn</w>
scale</w>
related</w>
regar
startup</w>
packed</w>
mike
weekly</w>
pts</w>
count</w>
har</w>
gotten</w>
mind
berlin</w>
conditions</w>
switch</w>
corn</w>
save
gli
emergency</w>
tuned</w>
stock
discussing</w>
everybody</w>
sday
whether</w>
wrestling</w>
eces</w>
gender</w>
chen
ðŁĳĢ</w>
madrid</w>
marathon</w>
egg</w>
ier</w>
thx</w>
asking</w>
korea</w>
wolf</w>
aya</w>
gm</w>
gau
atory</w>
vr</w>
grass</w>
killing</w>
bble</w>
uro</w>
uni</w>
eth</w>
shore</w>
then
reale
bottom</w>
exerc
kar</w>
ories</w>
adri
sands</w>
sex</w>
.'</w>
volunteers</w>
perform</w>
parliam
include</w>
delighted</w>
executive</w>
fuel</w>
kiss</w>
ãħ
charge</w>
hu</w>
cakes</w>
vet</w>
glu
agree</w>
prices</w>
nau
hl</w>
gru
raj
strength</w>
bic
spending</w>
ales</w>
aven
blast</w>
:(</w>
yof
normal</w>
six
quick
sea
daw
meets</w>
lovers</w>
updated</w>
potat
completed</w>
cook</w>
opportunities</w>
pure</w>
organic</w>
temper
cam</w>
avoid</w>
parking</w>
dubai</w>
ando</w>
distri
toy</w>
completely</w>
donald
trial</w>
bass</w>
boun
background</w>
vas</w>
marvel</w>
lum</w>
rus</w>
tool</w>
commissi
throwback
finding</w>
islam
!?</w>
stop
evil</w>
oral</w>
residents</w>
identi
oak
ðŁİ¶</w>
lil
spanish</w>
chapter</w>
stopped</w>
direct</w>
hosted</w>
picked</w>
labour</w>
lewis</w>
defense</w>
à®
healthcare</w>
whis
math</w>
peak</w>
raised</w>
fix</w>
bull</w>
thir
chelsea</w>
folk</w>
tre</w>
candi
paul
either</w>
adam
poetry</w>
jewelry</w>
ðŁ¦
pray</w>
Ø§
gc</w>
oz</w>
wishes</w>
foreign</w>
sung</w>
learned</w>
ene</w>
ning
michael
illustration</w>
legendary</w>
wav
bau
ðŁļ¨</w>
calend
streets</w>
âĨ
monster</w>
buck
gr</w>
school
bath
waste</w>
neck
hawa
beach
replac
ject</w>
oner</w>
factory</w>
count
ðŁĵ¸</w>
morgan</w>
dering</w>
sean</w>
stephen</w>
dep
novel</w>
videos</w>
ical
pressure</w>
arsenal</w>
expre
irs</w>
trending</w>
ssa</w>
flash
resear
through
professor</w>
sculp
tos</w>
gged</w>
mma</w>
bee
ape
hunter</w>
ami
hei
plastic</w>
bucks</w>
universe</w>
legen
nigeria</w>
pleased</w>
ris
thinks</w>
autumn</w>
ids</w>
dis</w>
anthony</w>
ðŁı½</w>
aked</w>
glasses</w>
finance</w>
zer
kas
contract</w>
numbers</w>
shaw
partnership</w>
til
launched</w>
sal</w>
victoria</w>
theater</w>
usual</w>
names</w>
period</w>
eliza
ith
barcel
rocks</w>
bags</w>
mate
distribu
jon</w>
diffic
alized</w>
curren
scored</w>
bha
dublin</w>
rose
inted</w>
solid</w>
behavi
walker</w>
simply</w>
gardens</w>
headed</w>
ini
ohio</w>
weap
fo</w>
glen
estate</w>
random</w>
thunder
thru</w>
kill
jacket</w>
iti</w>
entertainment</w>
thanksgiving</w>
ental</w>
encoura
elo
ather
tank</w>
highlights</w>
fting</w>
rule</w>
models</w>
border</w>
bjp</w>
husband</w>
indone
kenya</w>
bears</w>
alo</w>
ninten
pix
stro</w>
orders</w>
salad</w>
roads</w>
nor</w>
lation</w>
sophi
ðŁı¼
pieces</w>
bone</w>
mins</w>
includes</w>
nutr
phil</w>
sent
fundra
gain</w>
borough</w>
nad
monday
activity</w>
items</w>
becoming</w>
kenne
detro
cardi
guests</w>
ux</w>
worldwide</w>
severe</w>
news
thankful</w>
fiction</w>
vege
mall</w>
sian</w>
eral</w>
injury</w>
lee
menu</w>
dancing</w>
scotti
example</w>
(#</w>
nai
studios</w>
bai
ðŁĴĽ</w>
jav
diamond</w>
vince</w>
rick
protection</w>
lincol
champs</w>
approach</w>
dar</w>
mile</w>
clouds</w>
jeff
infin
lers</w>
ples</w>
peace
gop</w>
âĻ¡</w>
techn
stra</w>
average</w>
effort</w>
introducing</w>
diversity</w>
australian</w>
amp</w>
boost</w>
ske
patient</w>
appreciate</w>
icians</w>
pur</w>
fell</w>
woods</w>
illustr
ðŁĸ
agency</w>
actions</w>
britain</w>
underway</w>
seattle</w>
eland</w>
ago
fill</w>
streaming</w>
protest</w>
challenges</w>
kyo</w>
etsy</w>
cooking</w>
expert</w>
russ
rainbow</w>
commercial</w>
spin
beats</w>
cry</w>
valu
eli</w>
throw</w>
grams</w>
levels</w>
michigan</w>
cad
adorable</w>
constitu
ws
pub</w>
midnight</w>
that
netfli
brazil</w>
diego</w>
regular</w>
joy
âĤ¬</w>
liqu
eastern</w>
kni
flat</w>
np</w>
brown
wer
sey
tters</w>
acting</w>
vanc
cycling</w>
programme</w>
raw</w>
complex</w>
tattoo</w>
throwbackthursday</w>
sessions</w>
rooms</w>
sight</w>
species</w>
bomb</w>
laugh</w>
keeps</w>
moon
officers</w>
conver
tr</w>
hash
tack
rious</w>
adap
aj</w>
recogn
expo</w>
sugge
confirmed</w>
rolling</w>
dressing</w>
ict</w>
friday
phones</w>
ridge</w>
concept</w>
roy</w>
keys</w>
effor
cate
kne
even
lay</w>
communities</w>
mod
naz
everywhere</w>
alab
bitcoin</w>
banks</w>
outdoor</w>
federal</w>
stores</w>
hp</w>
cal</w>
mely</w>
signific
bear
republic
closer</w>
allah</w>
pick
xd</w>
palace</w>
chill</w>
bam
erous</w>
una</w>
allen</w>
outstanding</w>
olympic</w>
supply</w>
figu
vau
lp</w>
charlie</w>
unes</w>
>>></w>
legends</w>
icial</w>
coast
benefit</w>
multi</w>
fits</w>
farmers</w>
amount</w>
sisters</w>
harve
honey</w>
queen
bers</w>
plann
âŃĲ
mu</w>
barcelona</w>
alber
status</w>
remain</w>
extra
candy</w>
vious</w>
âľĮ
ov
warriors</w>
--></w>
jump</w>
amar
xmas</w>
studies</w>
iors</w>
kor
donate</w>
prep
fish
ima</w>
painted</w>
admini
cosplay</w>
sports
drops</w>
fighter</w>
evidence</w>
ðŁĴª</w>
lake
rob</w>
cinema</w>
profile</w>
Ã±
stands</w>
legacy</w>
shape</w>
roof</w>
civil</w>
ians</w>
syl
sham
voted</w>
retail</w>
philli
listed</w>
duty</w>
nb
thes</w>
fare</w>
auction</w>
fficial</w>
storms</w>
dp</w>
loun
shops</w>
aly
anime</w>
multiple</w>
ðŁĺįðŁĺį</w>
psycho
jean</w>
apart
candidate</w>
ggy</w>
conf</w>
joseph</w>
wick</w>
meat</w>
frame</w>
cl</w>
forgot</w>
phy
fing
lied</w>
rep</w>
seed</w>
fall
ufc</w>
nut</w>
lind
mode</w>
fields</w>
ence
sley</w>
ðŁ¤Ķ</w>
chill
followed</w>
announces</w>
corru
trophy</w>
themselves</w>
acle</w>
aldu
kong</w>
lon</w>
sv
broke</w>
anderson</w>
tai
story
temporary</w>
activities</w>
kati
ariz
crystal</w>
spoke</w>
extremely</w>
trading</w>
ðŁĴļ</w>
Ã¼
inch</w>
edin
outfit</w>
equip
madi
formed</w>
beef</w>
pop
tiger</w>
thisday</w>
tired</w>
neighb
retro
isa</w>
unt</w>
tas
kansas</w>
dest
seconds</w>
tay
hurric
ou</w>
galaxy</w>
daddy</w>
brow
burger</w>
enced</w>
desk</w>
accur
secretary</w>
elite</w>
kab
chin
tourism</w>
buddy</w>
icide</w>
dressed</w>
ud
vacation</w>
cheers</w>
comfor
characters</w>
jet</w>
buying</w>
lins</w>
nap
realestate</w>
lie
afc</w>
iii</w>
fame</w>
nr
bat</w>
agent</w>
makers</w>
âĢ¼
sector</w>
opti
leon
diet</w>
prayer</w>
hip</w>
mir</w>
lex
bry
ana
passing</w>
wen
recovery</w>
aki</w>
popul
resort</w>
maria</w>
stuck</w>
reads</w>
tier</w>
perfec
netflix</w>
poo
champ</w>
oc</w>
reduce</w>
wered</w>
comments</w>
claim</w>
accident</w>
sag
hack
salt</w>
kinda</w>
killer</w>
ios</w>
zy
exchange</w>
lecture</w>
enger</w>
icking</w>
tau
reveals</w>
prison</w>
zom
ghan</w>
ul</w>
journal</w>
iot</w>
trin
jona
governor</w>
cape</w>
quarter</w>
spective</w>
impressive</w>
babies</w>
tx
mill</w>
oy
harri
joint</w>
sue</w>
collaboration</w>
trend</w>
revolution</w>
renew
alumni</w>
gett
shell</w>
sunday
entu
nic</w>
donaldtrump</w>
blockchain</w>
pacific</w>
explains</w>
spy</w>
advoc
paradi
tof
starring</w>
pav
feed
brac
smoke</w>
hamp
yam
tokyo</w>
simon</w>
dh
effici
physical</w>
nj</w>
elli</w>
slow
graduate</w>
americans</w>
tify</w>
fred</w>
apore</w>
finds</w>
robin
wet</w>
notice</w>
semi</w>
unve
kom
pilot</w>
screening</w>
daily
ðŁĴĹ</w>
royal
spa</w>
votes</w>
nag
whate
attending</w>
experim
addition</w>
kate</w>
stol</w>
mali
foot
christ</w>
chan</w>
dee</w>
licen
global
moore</w>
tia</w>
brigh
mystery</w>
yay</w>
âĿ¤ï¸ıâĿ¤ï¸ı
creati
mechan
clock</w>
dic</w>
âĢĶ
pper
alph
throughout</w>
allow</w>
resources</w>
selection</w>
hamil
bbq</w>
aaaa
virginia</w>
disney
eng</w>
sored</w>
drinks</w>
fancy</w>
consider</w>
enda</w>
jane</w>
handmade</w>
dul
ontari
ius</w>
sville</w>
colorado</w>
whatever</w>
wheel</w>
promise</w>
never
designs</w>
ably</w>
sexual</w>
vancou
ati</w>
convention</w>
cultural</w>
singapore</w>
promo</w>
loaded</w>
glasgo
ppl</w>
noo
kee</w>
stem</w>
mention</w>
ido
cruise</w>
riding</w>
becomes</w>
bey</w>
âļ½ï¸ı</w>
twin</w>
dedicated</w>
nash
desi
workout</w>
jenni
iv
groups</w>
relax
phoeni
lift</w>
mixed</w>
mck
pc
must
metro</w>
cies</w>
yar
aim
anger</w>
ie
recy
married</w>
dropped</w>
engag
lest</w>
ambassador</w>
oph
des
wick
assistant</w>
natur
fail</w>
ltd</w>
short
kap
shaw</w>
bigger</w>
remains</w>
critical</w>
survey</w>
coverage</w>
erson</w>
wind
nb</w>
billy</w>
letes</w>
acts</w>
jimmy</w>
atlan
aland</w>
tc
importance</w>
damage</w>
fg</w>
storage</w>
twt</w>
bond</w>
balance</w>
crying</w>
puppy</w>
vote
push</w>
ðŁĴľ
poly
mel</w>
london
terrori
effective</w>
corporate</w>
atlanta</w>
jaco
nasa</w>
greek</w>
senate</w>
ish
eva</w>
intelligence</w>
efforts</w>
alco
kun
hall
diag
claims</w>
first
hb
bae</w>
vul
pull</w>
Â°</w>
separ
speed
victi
onthisday</w>
audience</w>
rates</w>
teach</w>
filming</w>
bush</w>
song
yum
brun
raine</w>
awa</w>
parks</w>
ðĿ
rabb
rach
raid</w>
reached</w>
rail</w>
moves</w>
selected</w>
fri</w>
raising</w>
omy</w>
stones</w>
suk</w>
francisco</w>
cases</w>
capit
confu
wtf</w>
poke
equipment</w>
greg
essential</w>
offering</w>
nex
pies</w>
bec
creation</w>
chairman</w>
crown</w>
wal</w>
johnny</w>
shift</w>
neck</w>
bang</w>
bird
ðŁĺı</w>
duck</w>
reserve</w>
depu
masters</w>
overall</w>
notic
juice</w>
sneak</w>
cheer</w>
classes</w>
eagles</w>
nca
carpet</w>
civil
coaches</w>
harris</w>
ups</w>
balls</w>
decor</w>
martin
ros</w>
vice</w>
announcement</w>
whose</w>
tigers</w>
stered</w>
cts</w>
dram
steel
young
install
suppo
recording</w>
deck</w>
seats</w>
lder</w>
angle</w>
bot</w>
styles</w>
elections</w>
fortun
nab
butter</w>
arian</w>
kash
inner</w>
oured</w>
beast</w>
wei
iconic</w>
experts</w>
necess
beng
james
lia</w>
greece</w>
ðŁĵ·
ðŁĺģ
goodbye</w>
mitch
twice</w>
mumbai</w>
steam</w>
rush</w>
medal</w>
nett</w>
fashion
tar</w>
rs
saving</w>
ricul
lm
sleeping</w>
brooklyn</w>
miss
sending</w>
discovered</w>
sphere</w>
oftheday</w>
kicks</w>
missions</w>
wright</w>
ern
ghtly</w>
ious</w>
melbourne</w>
startu
moved</w>
carry</w>
dak
agues</w>
belgi
ema
wayne</w>
dot</w>
erie</w>
pel</w>
itunes</w>
matthew</w>
nobody</w>
estab
calm</w>
winds</w>
luc
prepare</w>
trends</w>
exercise</w>
advant
ðŁĴ¯</w>
athletics</w>
apps</w>
ctions</w>
advance</w>
launches</w>
little
realdonaldtrump</w>
elizabeth</w>
carolina</w>
hub</w>
hidden</w>
nw</w>
user</w>
poll</w>
greater</w>
most
fed</w>
pat</w>
lifestyle</w>
sati
scores</w>
marriage</w>
lr</w>
avenue</w>
deserve</w>
rif
ðŁĹ
watch
championships</w>
gray</w>
enni
cotton</w>
gom
where
package</w>
sum
absolu
newly</w>
foods</w>
tyler</w>
assembly</w>
muslim</w>
bank
rememb
options</w>
producer</w>
lando</w>
funds</w>
upper</w>
shadow</w>
progre
cop</w>
inge</w>
legs</w>
detroit</w>
hillary</w>
jose</w>
giants</w>
soup</w>
sustainable</w>
tus</w>
clothes</w>
rocking</w>
nz</w>
minne
materi
bruce</w>
eart
casting</w>
independent</w>
thousands</w>
tah</w>
decl
veterans</w>
lions</w>
wrap</w>
âĢ¦
dess
bling</w>
stine</w>
eggs</w>
oon</w>
closing</w>
zay
att</w>
bacon</w>
fail
arizona</w>
depre
ghost</w>
newsp
wers</w>
vip</w>
liked</w>
ident
volunteer</w>
adult</w>
pupp
circle</w>
material</w>
degree</w>
grown</w>
boom</w>
calendar</w>
sur</w>
viewing</w>
athletes</w>
chand
rell</w>
asian</w>
entr
volley
victims</w>
body
mama</w>
transfer</w>
geek</w>
indic
saved</w>
mai
gent</w>
its
lounge</w>
kol
theory</w>
situation</w>
islands</w>
arth
zoo</w>
flood</w>
viously</w>
showed</w>
parliament</w>
chev
eline</w>
attrac
abad</w>
tail
hrs</w>
lus</w>
portu
gory</w>
provides</w>
toys</w>
death
infe
ance
gle
liam</w>
lover</w>
hud
dvd</w>
revealed</w>
gw
rement</w>
cathe
lying</w>
radio
derby</w>
stors</w>
chemi
hospit
âľ¨
':</w>
ilove
lemon</w>
republic</w>
sni
ness
door
reaction</w>
pregn
flav
scholar
spotify</w>
isation</w>
visual</w>
aware</w>
sponsored</w>
joke</w>
lessons</w>
legis
lock
simil
ðŁĺĭ</w>
kind
lay
mah
hoping</w>
vancouver</w>
aser</w>
cleaning</w>
gala</w>
threat</w>
lap
ache</w>
romance</w>
expen
repost</w>
zam
epi
mirror</w>
oak</w>
adul
batman</w>
slu
lc</w>
viewed</w>
reviews</w>
dates</w>
indonesia</w>
activi
offen
leaf</w>
isi
agricul
costume</w>
sites</w>
spiritu
appearance</w>
iry</w>
stair
application</w>
spectac
icity</w>
skies</w>
handle</w>
punk</w>
paradise</w>
tn</w>
deal
providing</w>
doc</w>
receiving</w>
brew</w>
microsoft</w>
Ã¶
ferr
metro
thail
yum</w>
carter</w>
Ã¡
gentle
breaks</w>
cooper
showcase</w>
cutting</w>
egypt</w>
baby
seminar</w>
glori
sson</w>
fave</w>
rehear
lotte</w>
lady
alas
prep</w>
delivered</w>
nuclear</w>
iro</w>
engagement</w>
atta
conven
zan
glory</w>
holds</w>
businesses</w>
strange</w>
sche</w>
itself</w>
grad</w>
markets</w>
falling</w>
stats</w>
geon</w>
budd
lis
sheet</w>
thisi
colo
desert</w>
registration</w>
ign
explain</w>
interior</w>
laws</w>
writers</w>
springs</w>
kr
fried</w>
bloom
infra
ao
cred
past
lineup</w>
boo</w>
brea
boots</w>
celebrity</w>
attacks</w>
brook</w>
eves</w>
excu
cherry</w>
oop</w>
fascin
boyfriend</w>
seas
nine</w>
effects</w>
powered</w>
kha
ðŁĺĢ</w>
shout
condition</w>
ij
hero
enterpri
winter
applications</w>
shoe</w>
gel
battle
programs</w>
wart</w>
ðŁĴ¥</w>
rap</w>
hol</w>
dangerous</w>
dia
counter</w>
rics</w>
ior
knight</w>
coat</w>
emotional</w>
atures</w>
das</w>
wheel
forecast</w>
transport</w>
glasgow</w>
kingdom</w>
preparing</w>
immedi
ffin</w>
awarded</w>
printing</w>
roman</w>
fighters</w>
anymore</w>
belt</w>
pine</w>
wine
xi</w>
employees</w>
logies</w>
alled</w>
demo</w>
birthday
angeles</w>
log</w>
drivers</w>
necklace</w>
kath
sit
athlete</w>
efs</w>
sburg</w>
purpose</w>
resistance</w>
releases</w>
tis</w>
various</w>
deliver</w>
chal
sanc
oppo
craw
neuro
dra</w>
supporters</w>
snap</w>
difficult</w>
swear</w>
logist</w>
path
attempt</w>
à¥
swimming</w>
steve
hurt</w>
included</w>
bap
ware
ðŁĴĭ</w>
enders</w>
jake</w>
leeds</w>
climb
lb</w>
imple
lisa</w>
clothing</w>
ðŁĺİ
dt</w>
compla
swing</w>
straw
vals</w>
kle</w>
users</w>
storm
cuts</w>
ontario</w>
pan</w>
handsome</w>
iow
argu
checking</w>
scottish</w>
Ķï¸ı</w>
sier</w>
emma</w>
pod</w>
pattern</w>
desh</w>
enh
edward</w>
ting
kh</w>
half
lincoln</w>
mother
alleg
rc</w>
volleyball</w>
dn</w>
gay
ally
leton</w>
grove</w>
loud</w>
advanced</w>
respec
client</w>
supreme</w>
thailand</w>
how
gig</w>
toi
dot
dollar</w>
ðŁĳĩ</w>
pit</w>
rb</w>
hn</w>
produced</w>
ggers</w>
âĨĴ</w>
mlb</w>
canvas</w>
fineart
usd</w>
inthe
pson</w>
actual</w>
sl</w>
tb</w>
ipad</w>
ensure</w>
umb
wd</w>
ska</w>
mars</w>
kend
feli
thing
countdown</w>
absolute</w>
rout
dral</w>
py</w>
injured</w>
mint</w>
hunting</w>
mmer</w>
sage</w>
ligh
acity</w>
expan
murray</w>
aro
secure</w>
fourth</w>
eagle</w>
relief</w>
stakes</w>
industrial</w>
clark</w>
understanding</w>
seem</w>
plenty</w>
silver
clau
threat
sail
produce</w>
abstr
isis</w>
br</w>
engers</w>
worry</w>
bieber</w>
sj
justin
realize</w>
kyle</w>
espn</w>
filter</w>
sch</w>
types</w>
gamedev</w>
ding
twitter
soldiers</w>
pom
carbon</w>
yards</w>
childhood</w>
ried</w>
kel</w>
eleph
tons</w>
keynote</w>
quiet</w>
wire
posting</w>
issa</w>
representing</w>
backs</w>
alexander</w>
celebrates</w>
taining</w>
||</w>
chor
escape</w>
peek</w>
tives</w>
field
ssie</w>
impac
sponsor</w>
rc
wedd
cannab
sides</w>
tracks</w>
compar
contrac
technical</w>
bible</w>
exploring</w>
share
trav
nate</w>
illo</w>
scru
mingham</w>
guns</w>
ofthe
shame</w>
sees</w>
catho
access
cel</w>
reported</w>
Â»</w>
mario</w>
pad</w>
hopefully</w>
ouse</w>
yon</w>
disappo
olo</w>
pitt
pac</w>
gap</w>
crush</w>
sg</w>
kle
gem</w>
empire</w>
dirty</w>
ais
aviation</w>
zealand</w>
facing</w>
highway</w>
danny</w>
spider</w>
otta
ðŁĺĦ</w>
wy</w>
colours</w>
infl
costs</w>
olympics</w>
aus</w>
hm</w>
howard</w>
passes</w>
lauren</w>
mush
opin
rho
discount</w>
operation</w>
emily</w>
mmm</w>
chamber</w>
dil
toyo
ship
samu
pictured</w>
unic
pol</w>
keeper</w>
cartoon</w>
sten
ignor
nations</w>
nl</w>
tasting</w>
detail</w>
officials</w>
motor</w>
francis</w>
editor</w>
ðŁĳĩ
pets</w>
rangers</w>
tg
rn</w>
wri
nichol
ise
spots</w>
anie</w>
check
triple</w>
kumar</w>
speakers</w>
icing</w>
prepared</w>
abuse</w>
friendship</w>
month
swim</w>
aire</w>
scent</w>
hamilton</w>
indian
jes
yummy</w>
tears</w>
dawn</w>
ized</w>
worlds</w>
ðŁķ
billi
stone
nhs</w>
basic</w>
por</w>
stle</w>
iron
older</w>
clevel
eing</w>
ðŁĺįðŁĺįðŁĺį</w>
prints</w>
firm</w>
aircraft</w>
finest</w>
develop</w>
aaron</w>
tz
graham</w>
owners</w>
foli
lesson</w>
ques</w>
babe</w>
craft
phen
jun</w>
birmingham</w>
vine</w>
ller</w>
ian
fineartamerica</w>
evolu
stab
imper
ward
comic
wiz
invited</w>
duke</w>
match
ports</w>
roger</w>
diagno
kept</w>
test
visu
rhy
soc</w>
tox
baker</w>
surface</w>
covers</w>
mans</w>
bits</w>
xbox</w>
ffle</w>
nan</w>
gard
hart</w>
waters</w>
villa</w>
retro</w>
lightning</w>
catholic</w>
democracy</w>
neighbor
penn
cran
jonathan</w>
laura</w>
vibes</w>
sub</w>
coaching</w>
clearly</w>
ukraine</w>
brave</w>
commitment</w>
tall</w>
mart</w>
rap
modi</w>
scott
bros</w>
shower</w>
ðŁı¾</w>
âĺºï¸ı</w>
cousin</w>
approach
bre</w>
compos
hilari
philly</w>
gad
quickly</w>
rian</w>
tm</w>
virtual</w>
houses</w>
kt</w>
phoenix</w>
wire</w>
ffy</w>
bunch</w>
ancing</w>
tale</w>
snapchat</w>
starter</w>
ht</w>
kicking</w>
apart</w>
thy
)!</w>
blogger</w>
itz</w>
comfort</w>
angels</w>
wash</w>
":</w>
argent
request</w>
honest
mighty</w>
bobby</w>
kg</w>
rol</w>
thouse</w>
expo
hc</w>
tables</w>
magical</w>
posts</w>
dem</w>
nw
orlando</w>
aber
***</w>
ðŁĺľ</w>
environmental</w>
transformation</w>
mile
wic
hiring</w>
maine</w>
boar
rying</w>
tis
niture</w>
tweeted</w>
antonio</w>
opinion</w>
finale</w>
diy</w>
fis
thin</w>
trouble</w>
lego</w>
files</w>
quart
spa
currency</w>
climate
fanart</w>
railway</w>
space
bands</w>
daniel
motion</w>
leng
holder</w>
occu
marie</w>
cathedral</w>
buzz
bies</w>
nascar</w>
bmw</w>
battery</w>
charlotte</w>
doctor
zzle</w>
seven
insan
ddy</w>
sten</w>
labor</w>
thrilled</w>
seren
documentary</w>
waves</w>
certain</w>
candid
allowed</w>
nintendo</w>
starwars</w>
tap</w>
homemade</w>
dles</w>
thering</w>
bree
empty</w>
piano</w>
positi
country
pork</w>
puts</w>
perry</w>
matic</w>
spotlight</w>
tist</w>
orities</w>
wealth</w>
cp
barbar
committed</w>
assau
profit</w>
eight</w>
hul
finishing</w>
runner</w>
sso</w>
inspec
charged</w>
christop
losing</w>
coal</w>
hoo</w>
elev
dele
moham
donation</w>
cable</w>
clinic</w>
jin
managed</w>
tering</w>
â¬
urban
deputy</w>
bber</w>
burn
academic</w>
ott</w>
stake</w>
iter
stown</w>
acker</w>
adventures</w>
adams</w>
greg</w>
prom</w>
vol</w>
acqu
congre
paint
citizens</w>
call
afford
vc</w>
asks</w>
thetic</w>
independence</w>
âĽ
hitting</w>
blon
future
âı
inno
gene</w>
boards</w>
distance</w>
set
remem
thal
prevent</w>
lang
objec
susp
matt
induc
boro</w>
pione
redi
virtu
printed</w>
scope</w>
shark</w>
succe
astron
illegal</w>
jag
cting</w>
inee</w>
ato
robin</w>
nutrition</w>
bf</w>
dutch</w>
bn</w>
furniture</w>
forgotten</w>
atar</w>
rup
hyper
branch</w>
communication</w>
degrees</w>
onia</w>
uncle</w>
promote</w>
orche
wii</w>
js</w>
button</w>
major
cbs</w>
bristol</w>
premium</w>
ordinary</w>
edit</w>
mg</w>
weed</w>
steven</w>
:'
gus</w>
tes
captured</w>
drugs</w>
dow
writes</w>
bishop</w>
wheels</w>
alization</w>
discovery</w>
wr</w>
rachel</w>
neil</w>
hydr
cutest</w>
entrepreneur</w>
korean</w>
oregon</w>
ulty</w>
perfectly</w>
supported</w>
historical</w>
twins</w>
elly
wel</w>
devil</w>
income</w>
scientists</w>
deleg
hen</w>
oni</w>
iced</w>
gio</w>
curry</w>
reveal</w>
eg
buffalo</w>
nol
opera</w>
cameron</w>
hahahaha
jab
graduation</w>
craig</w>
ral
if
organization</w>
lege</w>
gang
sud
edinburgh</w>
lack</w>
flies</w>
gate
thrones</w>
qb</w>
thereal
eleg
ppin</w>
cles</w>
jamie</w>
tnam</w>
crypto
oul</w>
pages</w>
ase
roots</w>
stupid</w>
adid
boot</w>
protein</w>
sap
sium</w>
sus
endor
function</w>
dont
enna</w>
chy</w>
sque</w>
worker</w>
mtv
ea</w>
kan</w>
ðŁĴļ
mus</w>
profession
tto</w>
operations</w>
allo
ctor</w>
invite</w>
scand
outh</w>
zim
links</w>
clients</w>
samsung</w>
discusses</w>
nell</w>
ultra</w>
somewhere</w>
stewart</w>
inet</w>
dez</w>
bout</w>
factor</w>
tian</w>
trans</w>
jeremy</w>
db</w>
ðŁĩ¬
orn</w>
developing</w>
spol</w>
cooper</w>
mau
remembering</w>
trek</w>
family
seniors</w>
foster</w>
attended</w>
wing
transform
elementary</w>
horiz
listing</w>
malaysia</w>
itch</w>
warrior</w>
philippines</w>
russell</w>
mend
initiative</w>
creep
tops</w>
briti
aur
sharp</w>
advertising</w>
ugly</w>
achiev
materials</w>
bug</w>
device</w>
bonus</w>
facility</w>
cole</w>
nhl</w>
yas
planned</w>
pole</w>
excellence</w>
trick</w>
confl
rp</w>
achieve</w>
loan</w>
swag</w>
jessica</w>
howe
pour</w>
scu
zoo
rated</w>
dresses</w>
rebel
mexican</w>
coordin
mess</w>
atlantic</w>
tl</w>
oscar</w>
walks</w>
pharmac
investigation</w>
...#</w>
cci</w>
easily</w>
mondaymotivation</w>
yment</w>
auti
forced</w>
armed</w>
colleagues</w>
papers</w>
proper</w>
shake
buc
lean</w>
exhibit</w>
evement</w>
cott
biz
sper
kent</w>
swan
/@</w>
girlfriend</w>
hawk</w>
âĺĢï¸ı</w>
mono
ðŁĴĽ
statue</w>
ðŁĺ³</w>
ras</w>
teeth</w>
precious</w>
tile</w>
pam
swift</w>
vali
nose</w>
drunk</w>
experiences</w>
comeback</w>
genius</w>
worse</w>
shef
rad</w>
edit
honour</w>
auspol</w>
larry</w>
hire</w>
gordon</w>
achievement</w>
........
suicide</w>
alternative</w>
sup</w>
surroun
shake</w>
keith</w>
pepper</w>
turk
criminal</w>
beck
sum</w>
walls</w>
cnn</w>
antic
offe
colli
wines</w>
highlight</w>
hawaii</w>
embar
lfc</w>
ðŁĩ®
mv</w>
>>
atmo
word
carl
shoutout</w>
brewing</w>
ìĿ
dof
sic
hottest</w>
colon
hhh</w>
shut</w>
lowing</w>
volume</w>
apartment</w>
agreement</w>
destro
wee</w>
religious</w>
iowa</w>
rod</w>
landing</w>
represent
ðŁĵ·:</w>
las
usually</w>
hl
cac
salv
along
laughing</w>
beans</w>
reminds</w>
phase</w>
somebody</w>
mask</w>
ranked</w>
destroy
sci</w>
âĢ¼ï¸ı</w>
gabri
leo</w>
roa
failed</w>
sil</w>
refugees</w>
revi
ring
berries</w>
cookies</w>
yy</w>
conservation</w>
shab
humans</w>
determin
ain
niall</w>
assu
mba</w>
from
extreme</w>
vices</w>
commerce</w>
ghtful</w>
ordered</w>
supports</w>
recap</w>
vor
dropping</w>
correct</w>
paying</w>
meaning</w>
nj
quiz</w>
"#</w>
business
ðŁĩ®ðŁĩ
indigen
dust</w>
boxes</w>
blind</w>
xxx</w>
zzy</w>
ðŁĩ¬ðŁĩ
ssels</w>
sant
ddle</w>
hilarious</w>
design
wondering</w>
vehicles</w>
kre
jud
reception</w>
parker</w>
ÃŃ
privi
hydro
softball</w>
pollu
locked</w>
bah
ear</w>
script</w>
divi
brace
george
theast</w>
belo
jal
tionary</w>
dental</w>
rocket</w>
purch
shak
manufacturing</w>
ez</w>
itis</w>
concep
tball
chs</w>
directed</w>
prayers</w>
ook</w>
philos
variety</w>
chess</w>
server</w>
gand
balti
ðŁĵ¸
sely</w>
cruz</w>
spectacular</w>
burning</w>
represent</w>
iz</w>
tone</w>
merce
hell
bedroom</w>
establi
bol</w>
common
ãĥ»
abor
kitty</w>
heights</w>
repair</w>
william
quake</w>
alabama</w>
population</w>
rev
rett</w>
ists</w>
nite</w>
lem</w>
aha</w>
cleveland</w>
rm</w>
pover
obse
montre
mania</w>
Â®</w>
conne
carni
shah</w>
fy
ua</w>
scor
struggle</w>
bob
''</w>
appropri
decide</w>
ffed</w>
caster</w>
sort</w>
hungry</w>
drag
Ø§Ù
grounds</w>
dw
slightly</w>
cardin
deadline</w>
bronze</w>
webin
barry</w>
silence</w>
euro</w>
option</w>
earn</w>
ðŁĴĸ
however</w>
naren
nails</w>
bathroom</w>
vine
phd</w>
mining</w>
garage</w>
()</w>
shoulder</w>
defeat</w>
dir</w>
ov</w>
liberty</w>
pleas
xon</w>
compre
av</w>
jin</w>
ables</w>
silent</w>
famili
visits</w>
dipl
habit
millions</w>
regarding</w>
innovative</w>
senator</w>
rts</w>
von</w>
kl
whil
required</w>
âĿĦ
luv</w>
presidential</w>
pocket</w>
hundre
shown</w>
frozen</w>
toward</w>
fast
confidence</w>
rough</w>
individual</w>
quet</w>
ðŁı½
dome
fifa</w>
engineer</w>
zen
remix</w>
ðŁĺĥ</w>
plant
minor</w>
robinson</w>
asy
pulled</w>
certain
potato</w>
(:</w>
pres</w>
occa
wit</w>
item</w>
sie
dating</w>
thompson</w>
owned</w>
anu
vie</w>
tedly</w>
goodnight</w>
except</w>
ðŁĮŁ</w>
iraq</w>
kie
rences</w>
lip</w>
similar</w>
saudi</w>
vig
arthur</w>
picks</w>
milan</w>
honda</w>
maxi
og</w>
stest</w>
arch</w>
analytics</w>
basti
pearl</w>
terry</w>
horse
astro
acce
launching</w>
international
sno
tasty</w>
denver</w>
irl</w>
pete</w>
torn
advantage</w>
varsity</w>
""</w>
sole</w>
gc
lang</w>
demonstr
olds</w>
unity</w>
nets</w>
inspire</w>
crete</w>
nashville</w>
nelson</w>
eter
walk
hyun</w>
mack
treas
seeking</w>
rage</w>
brush</w>
aband
whilst</w>
cocon
hong</w>
shelter</w>
ip</w>
possibly</w>
soo</w>
ited
âĦ
races</w>
warming</w>
quin
television</w>
matches</w>
rapi
mental
palm</w>
jennifer</w>
rolls</w>
indiana</w>
bars</w>
catching</w>
rescu
candidates</w>
fare
âłĢ</w>
seo</w>
vietnam</w>
alpha</w>
michelle</w>
visible</w>
regre
wned</w>
apple
lip
ffe</w>
liz
yorkshire</w>
hail</w>
seasons</w>
began</w>
md
kc</w>
lap</w>
fascinating</w>
help
ury
ums</w>
nuts</w>
sem
alongside</w>
bridge
orial</w>
ove
worldcup</w>
british
comfortable</w>
ive</w>
hotels</w>
fairs</w>
horri
sox</w>
dining</w>
stream
barri
ssy</w>
wim
terms</w>
vu
pere
lens</w>
walked</w>
ror
lars</w>
shield</w>
doubt</w>
proto
crossing</w>
meant</w>
medium</w>
adding</w>
eb</w>
cheap</w>
func
paper
brands</w>
ryan
feedback</w>
collins</w>
unknown</w>
tropical</w>
sandwich</w>
fallen</w>
formu
select</w>
loads</w>
answers</w>
ori</w>
maga</w>
dor</w>
duo</w>
alie</w>
drum</w>
uri</w>
deer</w>
soul
shut
âĺº</w>
stolen</w>
donated</w>
buzz</w>
patriots</w>
hal</w>
nasty</w>
nominated</w>
monte
kia</w>
thri
ingu
tests</w>
petro
ðŁĳĳ</w>
hosts</w>
nest</w>
topic</w>
patch</w>
mmy</w>
hugh
abilities</w>
mathe
smiles</w>
gb
agenda</w>
insights</w>
chip</w>
phan
failure</w>
dgers</w>
hai
significant</w>
shock</w>
rural</w>
glam
figures</w>
potus</w>
ota</w>
ministry</w>
appears</w>
fear
rh
american
hatt
sony</w>
fires</w>
edi
nou
equi
when
universal</w>
madness</w>
ix</w>
sculpture</w>
bach</w>
tto
sweden</w>
eta</w>
ento</w>
developed</w>
monthly</w>
maps</w>
rah</w>
led
delta</w>
saints</w>
islam</w>
bench</w>
fifth</w>
vard</w>
socks</w>
welcoming</w>
je</w>
turner</w>
vb</w>
adi</w>
norway</w>
ady</w>
hurricane</w>
porsche</w>
tradition</w>
exam</w>
newspaper</w>
luci
aver
ideal</w>
dna</w>
madison</w>
ðŁ§
witness</w>
acou
insight</w>
simon
robot</w>
snake</w>
nbc</w>
aco</w>
ross
shment</w>
religion</w>
chann
insu
campbell</w>
installed</w>
weather
horses</w>
oli</w>
robert
kaz
ðŁıĢ</w>
veteran</w>
thread</w>
quarter
easier</w>
capture</w>
hipho
lawrence</w>
romantic</w>
passion
clay</w>
oxford</w>
thai</w>
studying</w>
fia</w>
elected</w>
mostly</w>
cb</w>
tumb
âĢįâĻĤ
xl</w>
shan</w>
faster</w>
evans</w>
slide</w>
shri
seek</w>
mies</w>
chemistry</w>
pumpkin</w>
tum</w>
,,</w>
room
fired</w>
lips</w>
presence</w>
aff
brewery</w>
arrive</w>
swag
photograph</w>
pengu
chips</w>
attor
values</w>
accurate</w>
contemporary</w>
principal</w>
cannabis</w>
ario</w>
anywhere</w>
gia</w>
democrats</w>
buildings</w>
lived</w>
aps</w>
negative</w>
mare</w>
ballo
lion
diamon
look
reform</w>
tommy</w>
illa
treats</w>
hundreds</w>
portland</w>
worthy</w>
excep
aria</w>
idol</w>
beer
cdn
yu</w>
awk
ðŁĩ¨
cells</w>
Ã³
identity</w>
drawn</w>
devil
finger</w>
tham</w>
ðŁĳĬ
earned</w>
fintech</w>
dolph
tweeting</w>
evolution</w>
ðŁĵį</w>
estim
mvp</w>
none</w>
ðŁĩºðŁĩ¸
toyota</w>
aux</w>
marin
bold</w>
lbs</w>
steak</w>
murphy</w>
itable</w>
louis
solve</w>
pia</w>
skir
illino
webinar</w>
banana</w>
lov
thon</w>
voters</w>
affordable</w>
defeated</w>
lmfa
airlines</w>
superb</w>
anyway</w>
debt</w>
bored</w>
versi
metal
responsible</w>
mk</w>
sse</w>
fay
caused</w>
fp</w>
recommend</w>
plaza</w>
sporting</w>
alliance</w>
austri
nn
tours</w>
surprised</w>
artif
thunder</w>
surve
wore</w>
brief</w>
necessary</w>
zie</w>
ashley</w>
drake</w>
rt
knife</w>
immun
charges</w>
athe
bride</w>
reply</w>
gav
broadcast</w>
puer
bracelet</w>
capacity</w>
harvest</w>
idk</w>
performan
dding</w>
ilers</w>
para</w>
jama
province</w>
chin</w>
iders</w>
hari</w>
teaser</w>
chen</w>
restor
rat</w>
flat
colom
ðŁĴŀ</w>
ðŁĩ¨ðŁĩ
smooth</w>
rt</w>
pitch
staying</w>
israeli</w>
tcot</w>
perspective</w>
dock</w>
opener</w>
lovel
xo</w>
classroom</w>
lington</w>
goal
kennedy</w>
sham</w>
spaces</w>
mitchell</w>
homecoming</w>
uki</w>
claimed</w>
recruit
ingo</w>
mufc</w>
monit
groo
resident</w>
percent</w>
perman
ottawa</w>
intment</w>
anxi
standards</w>
worship</w>
scheme</w>
fx</w>
potter</w>
bian</w>
athletic</w>
afgh
sse
satell
parties</w>
âĿ¤âĿ¤
infrastructure</w>
relax</w>
modu
worn</w>
smoking</w>
yach
practices</w>
wcw</w>
amb
domestic</w>
taylor
kentu
provided</w>
modi
veg
"...</w>
observ
ðŁĺ©
beard</w>
mour
angry</w>
ðŁĺ±</w>
startups</w>
wooden</w>
dive</w>
nail</w>
antique</w>
roses</w>
tornado</w>
mat</w>
^^</w>
suspect</w>
farm
devices</w>
mega</w>
tul
scholarship</w>
gee</w>
disaster</w>
arrival</w>
poin
marc</w>
katie</w>
bbed</w>
false</w>
deserves</w>
richard
juana</w>
frey</w>
tioned</w>
hybri
rw
sarah
achi</w>
cure</w>
ole
morris</w>
chic</w>
broadway</w>
label</w>
pak</w>
poverty</w>
golf
ered</w>
fu</w>
eries</w>
bees</w>
alogue</w>
stel
wireless</w>
jewish</w>
tide</w>
blocked</w>
lifetime</w>
bhar
split</w>
amster
thi</w>
joshu
brunch</w>
haps</w>
sfor
oops</w>
kapoor</w>
hiking</w>
supposed</w>
roof
reas
train
tight</w>
trump
basically</w>
rr</w>
eared</w>
seeds</w>
entrance</w>
cp</w>
wie</w>
sonic</w>
victim</w>
here
eh</w>
earrings</w>
salmon</w>
arctic</w>
anne
dougla
corruption</w>
hannah</w>
hasn</w>
voices</w>
conce
atta</w>
fleet</w>
clinical</w>
democratic</w>
tony
stood</w>
lef
twitch</w>
ail</w>
honestly</w>
increased</w>
drome</w>
donna</w>
accepted</w>
visitors</w>
apar
ador</w>
par</w>
jerry</w>
rai
brandon</w>
abu
!!!!!!</w>
meme</w>
ingh
glorious</w>
bhu
pump</w>
jol
like
fisher</w>
maz
agan</w>
destination</w>
playlist</w>
letters</w>
genu
brace</w>
celebrated</w>
banner</w>
rhe
dragon
ðŁĺħ</w>
signature</w>
grey
âľĶï¸ı</w>
alice</w>
bered</w>
pher
bern
cath
gathering</w>
scoring</w>
influence</w>
smiling</w>
dept</w>
local
ax</w>
acu
retirement</w>
honor
herself</w>
chemical</w>
assess
yall</w>
frequ
appreciation</w>
aca</w>
choir</w>
cuz</w>
soil</w>
cil
reporting</w>
uh</w>
enterprise</w>
grat
jacob</w>
rum
fee</w>
jak
spin</w>
bikes</w>
phia</w>
stere
pis
blood
tatt
raft</w>
warren</w>
sheri
backstage</w>
marsh
hashtag</w>
therine</w>
rein
gameday</w>
guaran
recipes</w>
minds</w>
stronger</w>
issued</w>
bicy
nak
mented</w>
scary</w>
ux
previous</w>
ttle</w>
thats</w>
actors</w>
uma</w>
tina</w>
bunny</w>
promotion</w>
uss</w>
oliver</w>
montreal</w>
whats
appreciated</w>
lakes</w>
excuse</w>
knowing</w>
prizes</w>
muscle</w>
shades</w>
scot</w>
ingredi
electronic</w>
juan</w>
combat</w>
sri</w>
eh
turkish</w>
lom
strikes</w>
prison
ree
pope</w>
vid</w>
oldest</w>
doll</w>
swiss</w>
certified</w>
clip</w>
returning</w>
lator</w>
leigh</w>
ttes</w>
watson</w>
healing</w>
elim
perhaps</w>
hass
kau
dder</w>
mouse</w>
newcastle</w>
indigenous</w>
welcomes</w>
cole
taught</w>
noise</w>
appear</w>
joe
canon</w>
wednesday
utah</w>
ctive</w>
driven</w>
iv</w>
cell
strip</w>
acc</w>
focused</w>
arrest</w>
stocks</w>
woo</w>
âĹ
noticed</w>
shado
displa
terror</w>
borne</w>
second
queens</w>
woke</w>
jail</w>
nott
cambridge</w>
hart
seaf
fax</w>
accept</w>
âĺħ
goods</w>
kat</w>
twin
hs
thousand</w>
sins</w>
suite</w>
ampton</w>
arn
relev
richar
hoops</w>
nbc
classic
pab
soldier</w>
deplo
leans</w>
installation</w>
clash</w>
leban
eee</w>
tire</w>
beloved</w>
fusion</w>
traveling</w>
nei
cookie</w>
globe</w>
physics</w>
sq
col</w>
wolves</w>
dl</w>
exit</w>
"-</w>
football
leaf
sterling</w>
hide</w>
minneso
freshman</w>
nature
indie</w>
supplies</w>
bris
irish
inktober</w>
doodle</w>
icop
messages</w>
adults</w>
recorded</w>
fixed</w>
ardo</w>
offered</w>
underground</w>
drone</w>
pine
mainten
andre</w>
hammer</w>
sx
round
hike</w>
brad</w>
rome
full
oney</w>
rows</w>
columbia</w>
archives</w>
approved</w>
batch</w>
illinois</w>
recognition</w>
shouldn</w>
fog</w>
ncaa</w>
kevin
humanity</w>
although</w>
powers</w>
pou
sar</w>
pest</w>
alcohol</w>
consci
philadel
eno
tm
okla
category</w>
participate</w>
accused</w>
brief
poem</w>
clubs</w>
consult
jab</w>
bigdata</w>
amsterdam</w>
acing</w>
certific
nu</w>
dat</w>
improved</w>
andy
campaig
palestin
pace</w>
mobi
feelings</w>
wolf
brain
propos
interactive</w>
prince
index</w>
cis
chae
peaceful</w>
covering</w>
aco
courses</w>
monkey</w>
replace</w>
bl</w>
bloody</w>
tales</w>
brighton</w>
neighborhood</w>
gates</w>
spiritual</w>
afraid</w>
breast</w>
bones</w>
ðŁĳī
video
wau
touch
injuries</w>
carl</w>
rix</w>
unex
âĢ¢
fred
considered</w>
thusi
anch
ony
usa
graphics</w>
acre</w>
ðŁĺ©</w>
commemor
commod
goti
guardian</w>
starbucks</w>
prevention</w>
hahahaha</w>
administration</w>
portugal</w>
faculty</w>
beta</w>
ula</w>
albert</w>
breath
eri</w>
letting</w>
tric
mentation</w>
incredibly</w>
tennes
vd</w>
ðŁĻĪ</w>
eddie</w>
brick</w>
grill</w>
btw</w>
watches</w>
researchers</w>
tney</w>
nie
pas</w>
aster</w>
vibr
pokemon</w>
chrome</w>
goat</w>
pitts
illy</w>
festive</w>
yd</w>
canal</w>
ðŁĨ
fies</w>
carlos</w>
reque
partici
trains</w>
sample</w>
temperature</w>
symph
picking</w>
indoor</w>
zers</w>
playoffs</w>
________
apes</w>
lyrics</w>
islamic</w>
performances</w>
dick</w>
spark
seas</w>
homa</w>
ground
disci
employee</w>
commu
alaska</w>
alan
feast</w>
dging</w>
banking</w>
manuel</w>
slowly</w>
trucks</w>
mccar
ooo</w>
scrat
orchestra</w>
individu
mx</w>
breath</w>
stairs</w>
equality</w>
blake</w>
locations</w>
coconut</w>
baltimore</w>
aaa</w>
lc
ðŁıĨ
harvey</w>
resist</w>
immigration</w>
adidas</w>
fili
ref</w>
lgbt</w>
mos</w>
ppi</w>
kenny</w>
terror
bane</w>
apolis</w>
sg
socialmedia</w>
kai</w>
honest</w>
assas
bollywood</w>
âĢįâĻĢï¸ı</w>
ferrari</w>
horn</w>
crypto</w>
boom
maintenance</w>
idi
sman</w>
wl</w>
extended</w>
insul
ves
gosp
tri</w>
pig</w>
targe
celer
stati
smh</w>
ridic
appeal</w>
?)</w>
conclu
cosme
sheep</w>
christopher</w>
enthusi
polish</w>
mets</w>
ounded</w>
sustainability</w>
creativity</w>
concrete</w>
rai</w>
alien</w>
bless
tees</w>
club
rot</w>
bos</w>
exist</w>
perfection</w>
luck
rocky</w>
expensive</w>
meanwhile</w>
happybirthday
pret
thriller</w>
cave</w>
playoff</w>
somer
lu</w>
lex</w>
defence</w>
amwriting</w>
homeless</w>
prophe
chet</w>
pastor</w>
ðŁ¤£
lander</w>
www</w>
Ģï¸ı
tica</w>
!#</w>
otic</w>
radar</w>
posters</w>
powder</w>
poli
haun
trap</w>
blin
assault</w>
shorts</w>
rey
shy</w>
squir
racist</w>
garlic</w>
fur</w>
remote</w>
smell</w>
impressed</w>
fingers</w>
âłĢ
dino
lement</w>
snu
promoting</w>
string</w>
productive</w>
bage</w>
mason</w>
raz
directly</w>
jk</w>
eval</w>
ðŁĳĬ</w>
doctors</w>
cow</w>
rider</w>
stv</w>
remove</w>
wu
nathan</w>
rod
nr</w>
=></w>
affected</w>
invest</w>
mption</w>
ginger</w>
od</w>
agriculture</w>
sque
mug</w>
counting</w>
kee
magnific
cook
anistan</w>
root</w>
placed</w>
sympo
ghana</w>
und</w>
cheer
throwing</w>
secrets</w>
filling</w>
optimi
butterfly</w>
bubb
ðŁĺī
terrible</w>
dg</w>
silk</w>
obsessed</w>
lou</w>
aide</w>
salute</w>
monu
philadelphia</w>
scientific</w>
ist
uae</w>
dessert</w>
bottles</w>
canyon</w>
ðŁĺĪ</w>
carib
other
wich
resource</w>
guilty</w>
und
leon</w>
ess</w>
kane</w>
ele</w>
trainer</w>
heim</w>
ante</w>
manage</w>
rookie</w>
treated</w>
poses</w>
rsvp</w>
causes</w>
awak
jewell
lett</w>
onics</w>
titles</w>
cardiff</w>
gaga</w>
bump
useful</w>
?!
loose</w>
bbing</w>
::</w>
argentina</w>
debu
cycl
whel
disgu
jel
kills</w>
biology</w>
exter
trash</w>
bodies</w>
tram
circuit</w>
expect
lads</w>
wells</w>
shot
gee
narendr
fastest</w>
bent
bills</w>
marshall</w>
hats</w>
introduce</w>
citizen</w>
impossible</w>
gib
azz
networking</w>
rant</w>
think
indy
stops</w>
ftheday</w>
brian
**
amodi</w>
dome</w>
courage</w>
packing</w>
affairs</w>
gn</w>
sized</w>
entary</w>
poland</w>
switzer
afghanistan</w>
wu</w>
tender</w>
subscribe</w>
mosco
attend
republican</w>
honey
âĢĭ</w>
simul
wester
foodie</w>
oro
middle
abt</w>
copies</w>
maje
narendramodi</w>
typical</w>
inspirational</w>
vitam
wiscon
cubs</w>
tivity</w>
hali
ears</w>
kay</w>
dare</w>
marijuana</w>
curious</w>
ania</w>
tomato</w>
remind</w>
ðŁĩ·</w>
scared</w>
coup
poet</w>
landed</w>
rid</w>
wrapped</w>
morri
climbing</w>
ews</w>
feeding</w>
contra
thology</w>
grid</w>
tively</w>
reader</w>
laser</w>
diving</w>
dig</w>
latin</w>
tied</w>
shakespe
oci
adm
showers</w>
chuck</w>
marcus</w>
oos</w>
knee</w>
olive</w>
owl</w>
dylan</w>
anno
gym
decisions</w>
wellness</w>
arrives</w>
satis
chris
thurs</w>
ðŁ¤£</w>
interviews</w>
thankyou</w>
switzerland</w>
overnight</w>
journalist</w>
serves</w>
volcan
.......</w>
plot</w>
nicol
carrying</w>
magne
treasure</w>
exp
bever
ðŁĺ¢</w>
marty
mole
donations</w>
recognized</w>
bh
dus</w>
shann
aldo</w>
successfully</w>
ente</w>
ðŁĺĤðŁĺĤðŁĺĤðŁĺĤ
cabinet</w>
cuis
titled</w>
das
sol</w>
strategies</w>
delivering</w>
adds</w>
anian</w>
nether
ðŁĴĥ
contain
suits</w>
pairs</w>
todd</w>
rella</w>
rope</w>
cio</w>
crop</w>
paintings</w>
suz
rejec
bust</w>
dh</w>
fraud</w>
mh
control
jeal
destroyed</w>
allows</w>
wool
minnesota</w>
omen
ju</w>
symposium</w>
daf
limit</w>
accounts</w>
loading</w>
intern
resolution</w>
holland</w>
qual
meetings</w>
grave</w>
camping</w>
vam
renov
liberal</w>
amber</w>
gree
humb
fever</w>
eling</w>
brooks</w>
à²
beth
aded</w>
alt
roe</w>
performed</w>
josh
franklin</w>
nicole</w>
dess</w>
bbs</w>
mg
networks</w>
minim
alt</w>
weapons</w>
guy
jason
gha
harbour</w>
aton</w>
praise</w>
kentucky</w>
belfast</w>
sticks</w>
bloss
hopes</w>
anthro
familiar</w>
wait
chile</w>
depression</w>
lax</w>
jets</w>
leice
receives</w>
sier
ank</w>
dex
indeed</w>
flexi
fabric</w>
lamb</w>
helicop
amanda</w>
âĢĶâĢĶ
compete</w>
snack</w>
technologies</w>
syrian</w>
moms</w>
muham
chosen</w>
anat
devon</w>
sharks</w>
ret</w>
fundraiser</w>
selfies</w>
stations</w>
communications</w>
tennessee</w>
tutor
rot
valuable</w>
dynamic</w>
nurse</w>
ied</w>
earthquake</w>
deserved</w>
ave
sara</w>
stretch</w>
douglas</w>
nepal</w>
Ã§
obviously</w>
dame</w>
rape</w>
anybody</w>
kw
patrol</w>
holders</w>
hanna</w>
infographic</w>
eco</w>
beating</w>
stanley</w>
boats</w>
ribb
ez
witch</w>
inva
acid</w>
boarding</w>
-@</w>
gil</w>
dave
careers</w>
oppos
lloy
inter</w>
dope</w>
resu
jagu
shade</w>
indy</w>
onist</w>
relations</w>
agen
able
incident</w>
meter</w>
sharma</w>
idr</w>
prove</w>
immediately</w>
troops</w>
aman</w>
glow</w>
gaza</w>
blocks</w>
personal
chronic
aller
sid
shr
whatsapp</w>
lucy</w>
archae
hou</w>
journalism</w>
ourselves</w>
got
themed</w>
shaped</w>
weak</w>
casual</w>
length</w>
slam</w>
abbey</w>
ev</w>
counter
esta</w>
recipi
chapel</w>
expansion</w>
self
suffering</w>
spice</w>
nz
spart
desper
booking</w>
quarters</w>
yon
ðŁĴĹ
pk
continued</w>
-#</w>
manhatt
talked</w>
shen
combo</w>
hybrid</w>
jeans</w>
liquid</w>
seal</w>
retweets</w>
acceler
collective</w>
tas</w>
:))</w>
professionals</w>
raw
ott
susan</w>
iring</w>
oklahoma</w>
reven
survival</w>
creator</w>
transit</w>
stac
surf
ik</w>
editing</w>
chilling</w>
bailey</w>
steal</w>
rable</w>
parent</w>
hunger</w>
snapp
collect</w>
philosoph
dedication</w>
cf
cm
leep</w>
repeat</w>
reha
unfortun
aer
aero
abstract</w>
monitor</w>
agents</w>
bul</w>
science
harbor</w>
dragons</w>
flooding</w>
accompli
dash</w>
julia</w>
thered</w>
tuesday
cyber</w>
blow</w>
tained</w>
lem
reference</w>
ppo</w>
negoti
charle
connor</w>
ault</w>
accessories</w>
commissioner</w>
rainy</w>
rear</w>
advisory</w>
lucas</w>
maid</w>
coal
kav
polo</w>
ðŁı¾
transport
margare
strawberry</w>
burns</w>
greens</w>
nev
participants</w>
colin</w>
belgium</w>
colour
inform
dell</w>
bron</w>
caly
kickoff</w>
strategic</w>
reunion</w>
honors</w>
lib
egyp
âŃĲï¸ı</w>
hypo
sizes</w>
registered</w>
betes</w>
relaxing</w>
bloom</w>
intense</w>
valentines</w>
insane</w>
wwii</w>
px</w>
trio</w>
blade</w>
wisconsin</w>
cone</w>
platin
alize</w>
raven
increasing</w>
indians</w>
ilian</w>
blu</w>
rabbit</w>
extension</w>
jef
audi</w>
ferry</w>
sell
aday</w>
usb</w>
sweat
champag
method</w>
memph
assist</w>
sby</w>
cape
removed</w>
magn
vt</w>
rams</w>
fbi</w>
tackle</w>
phew</w>
hon</w>
motorcycle</w>
suspec
elephant</w>
subject</w>
lette</w>
dairy</w>
wheat</w>
awkward</w>
act
trol
mitted</w>
zayn</w>
sheriff</w>
enemy</w>
cons</w>
kett</w>
bulls</w>
evalu
btc</w>
satellite</w>
holo
porter</w>
diabetes</w>
better
releasing</w>
surf</w>
:-</w>
sebasti
collecting</w>
encing</w>
ethi
gods</w>
alley</w>
healthy
mills</w>
smash</w>
copper</w>
crack</w>
readers</w>
spac
license</w>
basket</w>
bangla
entic</w>
omi</w>
mere</w>
sively</w>
animation</w>
lanes</w>
dentally</w>
chillin</w>
fie</w>
karen</w>
depth</w>
lipse</w>
ng
rip
melo
sandy</w>
ðŁĳıðŁĳı
vincent</w>
nut
hug</w>
whole
creates</w>
????</w>
âĿ¤ï¸ıâĿ¤ï¸ı</w>
baked</w>
upgrade</w>
roberts</w>
hara</w>
caribbean</w>
authentic</w>
mbs</w>
moscow</w>
attorney</w>
wiki
chlo
hull</w>
cork</w>
"!</w>
stylish</w>
ðŁĵ¸:</w>
diary</w>
improving</w>
expand
bright
pollution</w>
knights</w>
personality</w>
checked</w>
facilities</w>
zel
bowling</w>
guer
ðŁİĤ</w>
ongoing</w>
units</w>
hook</w>
beck</w>
conflict</w>
todd
farming</w>
educational</w>
kak
clay
stroke</w>
belly</w>
explore
millenni
thm</w>
loop</w>
sms</w>
consist
circa</w>
bryan</w>
dab
younger</w>
solidar
ppa</w>
experienced</w>
bella</w>
board
sheffield</w>
stephen
consumer</w>
submit</w>
sponsor
tang
aggre
combined</w>
tracking</w>
sanders</w>
baz
survive</w>
ferred</w>
equal</w>
sep</w>
reed</w>
strong
privacy</w>
stap
ung
acry
pasta</w>
pirates</w>
ager</w>
fairy</w>
dup</w>
introduced</w>
wip</w>
lets
spray</w>
ðŁĵº</w>
grew</w>
asts</w>
pittsburgh</w>
newyork</w>
joey</w>
lauren
trade
chop
pipe</w>
claire</w>
behavior</w>
vap
crews</w>
laptop</w>
ðŁ¤Ĺ</w>
chester
discipl
df</w>
outdoors</w>
ks
gover
superstar</w>
casino</w>
farmer</w>
;-)</w>
returned</w>
ðŁıĪ</w>
mail
roasted</w>
costa</w>
vill
pez</w>
gardening</w>
distribution</w>
shining</w>
investors</w>
rasp
decades</w>
realized</w>
barn
pti</w>
stable</w>
utd</w>
panthers</w>
mens</w>
bn
cade
bucket</w>
ynn</w>
whenever</w>
wake
dais
bernie</w>
lodge</w>
julie</w>
atmosphere</w>
ðŁĺĺðŁĺĺ</w>
majority</w>
parti
excit
cut
meh
muslims</w>
begun</w>
flights</w>
veness</w>
ceme
posing</w>
sole
gou
darkness</w>
peach
celtic</w>
authority</w>
grandma</w>
fulness</w>
smith
specific</w>
garcia</w>
coins</w>
goodness</w>
aldub
recruiting</w>
dennis</w>
gary
sleeve</w>
weapon</w>
plz</w>
discover
harrison</w>
recruitment</w>
jai
chim
compared</w>
toms</w>
mothers</w>
amy
archive</w>
task</w>
benjam
seg
lawyer</w>
alum</w>
investing</w>
mie</w>
chez</w>
jp</w>
ake
flam
wallpaper</w>
âĻ¥ï¸ı</w>
tton</w>
chest</w>
favorites</w>
weigh
coolest</w>
rating</w>
relevant</w>
logan</w>
maple</w>
runners</w>
prior</w>
people
maur
terrorist</w>
tested</w>
carnival</w>
suspen
measure</w>
mv
cybersecurity</w>
appren
terrorism</w>
oz
vital</w>
nies</w>
gonz
funded</w>
twist</w>
assessment</w>
diesel</w>
enfor
column</w>
addressing</w>
casts</w>
payment</w>
xton</w>
fier</w>
,'</w>
last
nee</w>
unless</w>
close
skill</w>
cuisine</w>
funeral</w>
tiles</w>
aun
kru
relationships</w>
ðŁĴ¯
event
âĢįâĻĤï¸ı</w>
kindness</w>
proposed</w>
acoustic</w>
aes
defender</w>
dance
htt
wat</w>
voy
ðŁ¤ĺ
aus
cliff</w>
searching</w>
beautifully</w>
inqu
atl</w>
specialist</w>
ðŁĲ¶</w>
dai</w>
trails</w>
classics</w>
instant</w>
vous</w>
revenue</w>
march
kirk
fringe</w>
fireworks</w>
trivia</w>
âĺħ</w>
traction</w>
walter</w>
moto
lily</w>
attitude</w>
climb</w>
scan
savings</w>
cw
faith
credits</w>
abled</w>
graff
autograph
hehe</w>
ranch</w>
had
rogers</w>
ðŁĮ¹</w>
fin</w>
requ
folk
additional</w>
lynn</w>
uber</w>
dollars</w>
logic</w>
worth
som</w>
thesis</w>
pound</w>
bic</w>
stur
ceram
spencer</w>
entered</w>
vamp
organized</w>
âľĪ
pps</w>
tron</w>
mercedes</w>
noti
competitive</w>
dow</w>
ousness</w>
victor</w>
grilled</w>
nai</w>
putin</w>
abra
blame</w>
alexand
animal
decent</w>
pent
interior
:')</w>
butler</w>
ballet</w>
ðŁĴĶ</w>
albums</w>
downs</w>
lad</w>
sir
plain</w>
pers</w>
blonde</w>
disc</w>
pakistan
sement</w>
gaa</w>
wage</w>
chas
mani</w>
cops</w>
territ
lol
laughter</w>
rivers</w>
magnificent</w>
lamp</w>
wb
newsle
charts</w>
blessing</w>
punch</w>
longest</w>
floral</w>
cutie</w>
farewell</w>
stopping</w>
mbb</w>
bud</w>
cheese
decla
sim</w>
mcdonald</w>
deter
youth
tch
freder
kindle</w>
fern
ator
asleep</w>
pond</w>
sprint</w>
pounds</w>
lazy</w>
ghe
fundraising</w>
deadly</w>
grande</w>
doug</w>
hey
linda</w>
considering</w>
ium</w>
golden
vik
authors</w>
diss
ually</w>
appropriate</w>
morning
yle</w>
honoring</w>
folio</w>
bec</w>
rebec
finland</w>
formula</w>
cornwall</w>
shay
causing</w>
blend</w>
signal</w>
tent</w>
kashmir</w>
nationals</w>
harmony</w>
scout</w>
accessi
height</w>
medieval</w>
improvement</w>
kees</w>
practical</w>
card
depar
hun</w>
oming</w>
calgary</w>
stel</w>
bubble</w>
guru</w>
mah</w>
unexpe
nh</w>
eda</w>
meat
ige</w>
sio</w>
goddess</w>
inches</w>
tunes</w>
britt
stion</w>
raj</w>
âĻ«</w>
mercy</w>
ðŁĴĺ</w>
sends</w>
iest</w>
polici
vale</w>
reduced</w>
asap</w>
vijay</w>
defensive</w>
celebrations</w>
riders</w>
meditation</w>
harmon
ging
Â¡</w>
programming</w>
inau
sudden
mh</w>
replacement</w>
sku
jar</w>
grades</w>
tast
kitt
branding</w>
kaw
boot
fought</w>
pays</w>
gf</w>
ization</w>
hop
kk</w>
activist</w>
vend
coastal</w>
chaos</w>
ðŁĶ´</w>
seme
billboard</w>
lifting</w>
cumb
scal
ðŁĸ¤</w>
struck</w>
lv
indiedev</w>
beaten</w>
jungle</w>
alright</w>
destiny</w>
ming
kc
chances</w>
oman</w>
qatar</w>
craf
trained</w>
prix</w>
charm</w>
otive</w>
smu
ec</w>
anders</w>
handed</w>
alban
certainly</w>
arriving</w>
ize</w>
sai</w>
track
painter</w>
humble</w>
appointment</w>
headline</w>
managing</w>
mod</w>
aspe
andrea</w>
Ã¤
ethiop
united
exist
bali</w>
kad
nt
dred</w>
rex</w>
recognize</w>
tampa</w>
beers</w>
atia</w>
heels</w>
note
transportation</w>
turtle</w>
rede
hiphop</w>
spicy</w>
spurs</w>
â¬ĩ
corp</w>
thern
toast</w>
hurry</w>
properties</w>
mage</w>
marco</w>
elements</w>
bouti
syndrome</w>
msg</w>
developer</w>
graders</w>
heim
resil
offices</w>
delay</w>
dimen
vintag
barbara</w>
ðŁĺ±
venezu
cular</w>
faced</w>
barn</w>
ðŁĺĨ</w>
survivor</w>
worm</w>
confused</w>
passionate</w>
Ø±
identify</w>
electricity</w>
souls</w>
bradley</w>
reportedly</w>
lunch
shelf</w>
elia</w>
sweet
smooth
employment</w>
amel</w>
manhattan</w>
steam
ounts</w>
yep</w>
living
une</w>
describe</w>
cares</w>
manila</w>
shawn</w>
acted</w>
bash</w>
steven
rest
petition</w>
divine</w>
welsh</w>
race
platinum</w>
ðŁĮ¸</w>
pb</w>
extraordinary</w>
solidarity</w>
mall
onion</w>
scheduled</w>
gameof
fergu
dems</w>
norm
pk</w>
trials</w>
policies</w>
publishing</w>
stole</w>
front
character
vania</w>
exce
stie</w>
sca</w>
residential</w>
sailing</w>
ðŁĶ¥ðŁĶ¥ðŁĶ¥</w>
sponsors</w>
thick</w>
champagne</w>
shepher
continuing</w>
venice</w>
perth</w>
nap</w>
aster
yak
unlimited</w>
choices</w>
neo</w>
hiv</w>
reporter</w>
brussels</w>
fold</w>
dys
semi
lawn</w>
italia</w>
wifi</w>
ask
emed</w>
frame
monitoring</w>
stead</w>
ida
grin
isa
flip</w>
restric
offensive</w>
attached</w>
dish
why
phillips</w>
greet
pals</w>
mixtape</w>
vou
fielder</w>
spark</w>
alberta</w>
glen</w>
cash
sri
uri
rodri
entrepreneurs</w>
climatechange</w>
psy</w>
dle
ements</w>
linked</w>
netherlands</w>
accidentally</w>
opposition</w>
velvet</w>
rays</w>
cw</w>
omo</w>
mf</w>
lmfao</w>
newsletter</w>
:)
toilet</w>
literature</w>
disp
philip</w>
uniform</w>
suddenly</w>
header</w>
cooler</w>
---</w>
proud
brig
nissan</w>
scientist</w>
jah</w>
concentr
packs</w>
appointed</w>
soap</w>
engage</w>
chose</w>
âĻ¡
setup</w>
jealous</w>
harry
gation</w>
tunnel</w>
temp</w>
oscars</w>
decade</w>
recommended</w>
children
aba</w>
anxiety</w>
vements</w>
salon</w>
photoo
organiz
machines</w>
abs</w>
ville
hype</w>
tiff
emerging</w>
avgeek</w>
[#</w>
contribution</w>
brady</w>
resto
gmail</w>
fitz
photoshoot</w>
helmet</w>
ht
elegant</w>
uganda</w>
nursing</w>
orleans</w>
penn</w>
nah</w>
footage</w>
ema</w>
wo</w>
wad
concerns</w>
vere
remark
whoever</w>
strang
pt
quit</w>
shang
history
sick
permanent</w>
illness</w>
cold
vision
hem</w>
arrow</w>
convic
pink
occup
bald
exhau
uof
amo</w>
ont</w>
ãĥ»</w>
adopt</w>
laid</w>
smoked</w>
interpre
essenti
associated</w>
bd</w>
bby
fier
install</w>
diplom
conditi
cf</w>
wak
anya</w>
graci
fisher
sss</w>
apr</w>
ilit
musician</w>
symphony</w>
cord</w>
hack</w>
legi
lv</w>
blessings</w>
humor</w>
scra
eti
minster</w>
travelling</w>
bush
jewellery</w>
lime</w>
!!!
pregnant</w>
pee</w>
lob
capital
ipa</w>
pencil</w>
labor
ducks</w>
proudly</w>
wedding
derek</w>
mw</w>
peg</w>
valentine
angu
retreat</w>
prospect</w>
danger</w>
vulner
upset</w>
,#</w>
srk</w>
xim
thursday
nfl
kisses</w>
reds</w>
crack
reward</w>
cu</w>
kok</w>
mete
abandoned</w>
itt</w>
meals</w>
spell</w>
stanbul</w>
delays</w>
rum</w>
leop
gum</w>
nova</w>
superman</w>
chick</w>
mis</w>
dramatic</w>
innocent</w>
rounds</w>
rec</w>
autism</w>
bangladesh</w>
moral</w>
movie
spoo
kla
âĥ£
outing</w>
messi</w>
abroad</w>
lookin</w>
aim</w>
qi</w>
stack</w>
collage</w>
à¯
hudson</w>
scan</w>
hoe</w>
chau
occur
commander</w>
holes</w>
ðŁİĦ</w>
bias</w>
von
sticker</w>
mak
responsibility</w>
columbus</w>
saint
edmon
racism</w>
farms</w>
wen</w>
gulf</w>
mayo</w>
!!!!!!!!
corporation</w>
bachel
ela
internal</w>
jeep</w>
follows</w>
dialogue</w>
derer</w>
smartphone</w>
helen</w>
richmond</w>
equity</w>
sland</w>
bg</w>
near
avi</w>
memphis</w>
weir
discussed</w>
badge</w>
pup</w>
mistake</w>
phenomen
unite</w>
ðŁĽ
depic
rides</w>
inaugu
nat</w>
softwitter</w>
combination</w>
gospel</w>
âļ¾
admission</w>
retrogaming</w>
ðŁĲ¾</w>
schu
mbo</w>
junction</w>
alarm</w>
à¦
grac
khali
kul
male
caption</w>
wish
tere
corps</w>
rubber</w>
playstation</w>
erin</w>
efficient</w>
lor</w>
jokes</w>
inary</w>
norman</w>
luis</w>
inaugural</w>
ched
âļ½ï¸ı
dip</w>
toe</w>
strat
aac</w>
amu
pier</w>
cott</w>
command</w>
tten
snoo
cube</w>
closes</w>
classical</w>
sword</w>
expression</w>
reaching</w>
napp
cost
affect</w>
rico</w>
gif
breathe</w>
tribe</w>
ortho
hay</w>
lg</w>
fries</w>
nm</w>
hiding</w>
richards</w>
ende
micro</w>
capitol</w>
copy
rom
regime</w>
maryland</w>
taxi</w>
dial</w>
embarra
unbeliev
cht</w>
vs
elimin
odd</w>
penny</w>
soundtrack</w>
lings</w>
transition</w>
remaining</w>
ais</w>
malik</w>
?!?</w>
random
defend</w>
ultra
trum</w>
dancer</w>
stol
drive
aver</w>
roast</w>
definition</w>
sean
excitement</w>
particul
surely</w>
shav
bery</w>
dishes</w>
comm</w>
isol
iam</w>
obli
ghost
hughes</w>
chiefs</w>
bas</w>
conservative</w>
special
femin
shri</w>
nancy</w>
intel</w>
tune
ðŁĩª
joel</w>
ggle</w>
moto</w>
ðŁĺĶ</w>
buck</w>
dag
anticip
montana</w>
guid
frog</w>
ecraft</w>
ope</w>
drives</w>
numer
xy</w>
colorful</w>
wednesdaywisdom</w>
illumin
beyon
inaugur
deeply</w>
prefer</w>
fortune</w>
cooked</w>
tible</w>
âĺķ
sweater</w>
itter</w>
tty
ui</w>
gie
complic
~~
taxes</w>
cups</w>
diverse</w>
samanth
âłĢâłĢ
baking</w>
symp
wai
behalf</w>
mercur
travels</w>
ðŁİīðŁİ
oria</w>
engaged</w>
jumping</w>
retired</w>
naked</w>
puni
speedway</w>
sciences</w>
rehearsal</w>
onym
dyou
plates</w>
rati
krish
jazz
carol</w>
raf</w>
penalty</w>
timeline</w>
ruby</w>
engineers</w>
raf
belle</w>
dose</w>
cheon</w>
escap
meg
rank</w>
ord</w>
megan</w>
merch</w>
eclipse</w>
âĺºï¸ı
pledge</w>
kirk</w>
persi
leicester</w>
sak
wk
safely</w>
yyy</w>
jet
promised</w>
jc</w>
enne</w>
noah</w>
reno
rea</w>
ðŁĺĤðŁĺĤðŁĺĤðŁĺĤ</w>
trail
ðŁĳĢ
fd</w>
sooo</w>
rimin
wk</w>
à¸²
ial
xox
biscu
dale
fandom</w>
participating</w>
flag
privilege</w>
peach</w>
machine
boston
gross</w>
og
miracle</w>
adoption</w>
uss
monsters</w>
beij
clarke</w>
pushing</w>
praying</w>
aro</w>
dn
ellis</w>
apollo</w>
odds</w>
refugee</w>
tow
bp</w>
ðŁĩ¬ðŁĩ§</w>
hend
appeared</w>
membership</w>
pean
dum</w>
violent</w>
vy
potatoes</w>
aww</w>
greetings</w>
tts</w>
acon</w>
shane</w>
photographed</w>
crab</w>
temperatures</w>
cuba</w>
cfc</w>
welcom
hel</w>
innings</w>
mk
code
knock</w>
grass
swedish</w>
pta</w>
icky</w>
vat
lining</w>
sq</w>
sap</w>
arc</w>
announcing</w>
skins</w>
cityof
bring
cox</w>
gamer</w>
itarian</w>
ida</w>
hd
rosse</w>
sadly</w>
geo</w>
âļ¡ï¸ı</w>
tags</w>
father
change
lance</w>
whiskey</w>
adelaide</w>
tec</w>
stickers</w>
market
classy</w>
badass</w>
florence</w>
liner</w>
frost</w>
kate
acon
scandal</w>
essex</w>
ðŁĺı
vivi
drill</w>
bloggers</w>
recommend
dha
acres</w>
roma</w>
buy
grocer
eria</w>
mahar
ffer</w>
patterns</w>
veri
compu
stev
anga</w>
mentor</w>
doo</w>
itali
cdnpoli</w>
only
conduct</w>
electro
def</w>
whale</w>
preparation</w>
bicycle</w>
viral</w>
turnout</w>
brass</w>
quad
hospitality</w>
packaging</w>
dency</w>
cemetery</w>
aboard</w>
dreaming</w>
picture
tall
invent
admi
oe</w>
temps</w>
quan
fundam
promp
residence</w>
mud</w>
souri</w>
âĦ¢</w>
graffiti</w>
gif</w>
dnd</w>
comp</w>
swar
peeps</w>
palestine</w>
devils</w>
sang</w>
assistance</w>
bike
mississi
interviewed</w>
nephew</w>
drums</w>
vand
gentlemen</w>
nsw</w>
insta</w>
lebanon</w>
eeee
olivia</w>
very
rough
industries</w>
mation</w>
ðŁĺĴ</w>
barrel</w>
nay
pops</w>
modern
illy
arest</w>
onents</w>
protecting</w>
vans</w>
eo</w>
vikings</w>
restaurants</w>
reck
jackie</w>
andrew
willing</w>
heath</w>
citizen
discrimin
à¹Ī</w>
stuart</w>
mys</w>
hip
transp
"?</w>
tex</w>
sushi</w>
ked
crossed</w>
distur
pedia</w>
fate</w>
somehow</w>
moth</w>
processing</w>
iss
rin</w>
uts</w>
yyc</w>
vert</w>
lgbt
reid</w>
onto
arabia</w>
habitat</w>
==
streak</w>
simpson</w>
addiction</w>
wimble
delivers</w>
challenging</w>
ðŁİ¶
franch
edu
sme
aids</w>
hurst</w>
tham
tarian</w>
remembered</w>
palestinian</w>
fees</w>
trum
sketch
uru</w>
fitting</w>
jesse</w>
ðŁĶ¥ðŁĶ¥</w>
--------
bach
icia</w>
colored</w>
dah</w>
associate</w>
intel
seller</w>
pu</w>
stuffed</w>
acs</w>
bs
shin</w>
cooperation</w>
certificate</w>
abu</w>
ingredients</w>
rev</w>
inge
elder
christian
bundle</w>
thic</w>
dirt</w>
beijing</w>
commit</w>
teddy</w>
edu</w>
today
sfield</w>
wyn
confirms</w>
loo</w>
jv</w>
eness</w>
alpha
virus</w>
arium</w>
grind</w>
bridges</w>
introduction</w>
polls</w>
bacter
zach</w>
terminal</w>
raiders</w>
flavor</w>
zombie</w>
vod
spreading</w>
gameofthrones</w>
efficiency</w>
lately</w>
alem</w>
tweet
crimes</w>
cler
dey</w>
dged</w>
hyun
payments</w>
circus</w>
ðŁĺŃðŁĺŃ</w>
missouri</w>
lub</w>
episodes</w>
cage</w>
pos</w>
matching</w>
tumblr</w>
lined</w>
gest
ambi
narr
ington
regul
blown</w>
isle</w>
coco
ondon</w>
joshua</w>
touring</w>
sma</w>
sausage</w>
bestfriend</w>
boeing</w>
desire</w>
savage</w>
rapper</w>
devo
tear</w>
takeover</w>
cowboys</w>
poker</w>
parag
ppe</w>
hint</w>
wears</w>
seth</w>
roles</w>
lanc
manga</w>
format</w>
flyer</w>
cay
moor</w>
bake</w>
splash</w>
vad
kerala</w>
proceeds</w>
silly</w>
reflection</w>
distr
wid
suit
civic</w>
yankees</w>
byn</w>
migration</w>
distin
orch
femini
qualifying</w>
turi
obe
hundred</w>
crap</w>
wang</w>
mathemat
bure
exposure</w>
ferguson</w>
semester</w>
reserv
plym
ahu
facial</w>
wax</w>
worried</w>
cab</w>
vio
asa</w>
cod</w>
topics</w>
pcs</w>
halo</w>
rescued</w>
horizon</w>
ark
âļª
holly</w>
elf</w>
ulti
pup
qualified</w>
attendance</w>
atively</w>
destroy</w>
yc</w>
forth</w>
photooftheday</w>
cents</w>
iceland</w>
measures</w>
desk
portfolio</w>
articles</w>
directors</w>
datab
ew
creepy</w>
ounding</w>
honoured</w>
mist</w>
jit
mentioned</w>
portable</w>
itic</w>
dann
fridayfeeling</w>
amid</w>
tiger
scrip
helicopter</w>
hardware</w>
explor
workplace</w>
austria</w>
beatles</w>
bernar
spider
disco</w>
cult</w>
limits</w>
shortly</w>
final
ninja</w>
luke
lebron</w>
walmart</w>
oil
vanilla</w>
shire
yeg</w>
aky</w>
cs
bler</w>
collected</w>
tg</w>
rolled</w>
specials</w>
bff</w>
pierre</w>
shim
vier</w>
flashback</w>
restoration</w>
individuals</w>
prod</w>
freaking</w>
turer</w>
oa</w>
refre
moroc
greet</w>
reyn
careful</w>
ouring</w>
ush
isd</w>
gill</w>
view
thunderstorm</w>
bled</w>
picnic</w>
guardi
pig
ark</w>
sylvania</w>
banned</w>
ucl
vijay
orium</w>
avengers</w>
believes</w>
eur</w>
monument</w>
concerned</w>
labs</w>
berg
aap
vish
singles</w>
cancel
zel</w>
arab</w>
ruth</w>
tooth</w>
arta</w>
shaf
chairs</w>
rack</w>
diseases</w>
crowd
cly
flex</w>
christma
artificial</w>
tomat
fine
draws</w>
advocate</w>
france
ÙĬ
ðŁĺ³
heavy
sour</w>
comprehen
noble</w>
aap</w>
hindu</w>
coral</w>
gars</w>
owen</w>
nl
stall</w>
yellow
marina</w>
inver
support
tough
promises</w>
pie
masterpiece</w>
score
force
mortg
cryptocurrency</w>
ox</w>
rors</w>
rockin</w>
provin
hog
nostal
oakland</w>
patrick
inclusion</w>
traffic
ahmed</w>
aha
luxury
consecu
demon</w>
âĸº</w>
blowing</w>
stag
:"</w>
encourage</w>
bene
skull</w>
dodge</w>
buster</w>
kinson</w>
witne
error</w>
lowest</w>
fellow
à°
shre
blur
virgin</w>
composer</w>
slip</w>
mornings</w>
gains</w>
table
grain</w>
arist</w>
brazilian</w>
wwe
tues</w>
ribbon</w>
anag
dist</w>
sacrif
embrace</w>
entrepreneur
affili
deo</w>
tali
tourist</w>
fatal</w>
ìĬ
automatic</w>
ðŁĩµ
weak
welfare</w>
confirm</w>
benjamin</w>
fights</w>
alleged</w>
mead
struggling</w>
prosecu
chef
Ã¨
proposal</w>
ern</w>
ðŁĺĦ
dyk</w>
ongs</w>
hong
mack</w>
melon</w>
onent</w>
rush
dap
toler
propag
cze
translation</w>
wallet</w>
cottage</w>
sail</w>
constitution</w>
ðŁĴĢ</w>
munici
favor</w>
stormhour</w>
ih
ðŁĺĮ</w>
approaching</w>
pinned</w>
jed
nigerian</w>
nach
shat
particularly</w>
mcdon
cameras</w>
annie</w>
administr
heat
electrical</w>
charming</w>
gibson</w>
boutique</w>
exposed</w>
actor
pillow</w>
beaches</w>
genuine</w>
margaret</w>
bennett</w>
louisi
positions</w>
ely
shiny</w>
tention</w>
architect</w>
rental</w>
acqui
google
subway</w>
moment
ðŁļ¨
rim</w>
methods</w>
cycli
norfolk</w>
ÙĪ
overwhel
rapid</w>
wear
happybirthday</w>
progressive</w>
ðŁĴ¥
cogn
papa</w>
fool</w>
philosophy</w>
polar</w>
jimmy
wig</w>
ðŁĴĭ
operating</w>
reduction</w>
phi</w>
flags</w>
tothe
odi
ares</w>
koo
kang
arkansas</w>
ashton</w>
wimbledon</w>
scifi</w>
attractive</w>
mississippi</w>
logists</w>
ralph</w>
label
graduates</w>
maha
hometown</w>
âľĮï¸ı</w>
founded</w>
onthe
liz</w>
transl
minimum</w>
presti
tam</w>
generations</w>
rebel</w>
journalists</w>
param
mcm</w>
acrylic</w>
deaths</w>
tesla</w>
wt</w>
bryant</w>
jerus
istanbul</w>
muhammad</w>
riley</w>
kris</w>
workshops</w>
iso</w>
counts</w>
stret
protected</w>
trinity</w>
manual</w>
rhin
ril
pleasant</w>
lemon
nerd</w>
harder</w>
darren</w>
bury
rah
basis</w>
migu
occasion</w>
lists</w>
âĿ¤ï¸ıâĿ¤ï¸ıâĿ¤ï¸ı</w>
eb
decre
hampton</w>
ìĿ´
travis</w>
transform</w>
puerto</w>
nhl
avoc
trips</w>
unexpected</w>
vet
didyou
barber</w>
stages</w>
mson</w>
represented</w>
fort
lal
pple</w>
nicely</w>
ignore</w>
quil
quinn</w>
hk</w>
carrier</w>
reminded</w>
among
passenger</w>
ellen</w>
guez</w>
scape</w>
mural</w>
youngest</w>
mash
dill
routine</w>
stainless</w>
jackson
gandhi</w>
thal</w>
oners</w>
editorial</w>
conversations</w>
sdale</w>
automation</w>
ike
à¸²à¸
ðŁĩª</w>
haul</w>
laying</w>
mentions</w>
amen</w>
abortion</w>
ibi
counties</w>
catherine</w>
mands</w>
jame
roller</w>
aut</w>
nam</w>
ological</w>
ception</w>
ranking</w>
toxic</w>
snacks</w>
victorian</w>
bangkok</w>
psychology</w>
reg</w>
angela</w>
respond</w>
style
sophie</w>
dakota</w>
achieved</w>
marked</w>
imperial</w>
inas</w>
gloves</w>
slim</w>
confident</w>
attacked</w>
gger
lonely</w>
valentinesday</w>
reb
craftbeer</w>
origin</w>
zimbab
ceiling</w>
teens</w>
otherwise</w>
wb</w>
fers</w>
daysof
advisor</w>
yah</w>
âĻª</w>
ender</w>
republicans</w>
ava</w>
skirt</w>
pipel
chie</w>
jane
jax</w>
ðŁĺĭ
âľĬ
jays</w>
brett</w>
balo
crucial</w>
dhar
asis</w>
deau</w>
lloyd</w>
chatting</w>
âĿĦï¸ı</w>
relay</w>
remarkable</w>
ns
wet
brisbane</w>
ðŁĶ´
tionally</w>
fk</w>
layer</w>
household</w>
consecutive</w>
esis</w>
pendant</w>
stir
critic
sugar
photoshop</w>
pares</w>
artistic</w>
dodgers</w>
cun
crafted</w>
amend
boat
âŃĲï¸ı
egyptian</w>
saw
trage
smaller</w>
oxy
paired</w>
next
ires</w>
taco</w>
oy</w>
uc</w>
sti</w>
aerial</w>
://</w>
dro</w>
dotcom</w>
ggins</w>
rpg</w>
aye</w>
lean
striker</w>
lobby</w>
protests</w>
priority</w>
congress
amate
invit
rington</w>
mommy</w>
thus</w>
allowing</w>
pioneer</w>
enforcement</w>
gori
talk
drag</w>
dumb</w>
bullet</w>
sange
ery
targets</w>
ðŁĩ¦
heather</w>
consider
seafood</w>
vest</w>
risks</w>
%.</w>
pg
sacred</w>
heating</w>
kicked</w>
ttot</w>
.-</w>
chandi
coven
pool
pulse</w>
ia
roster</w>
shakespeare</w>
esa</w>
cargo</w>
peanut</w>
troop
action
tablet</w>
homework</w>
castle
struction</w>
musicians</w>
freezing</w>
butt
justinbieber</w>
jj
bahrain</w>
anthem</w>
audit
didyouknow</w>
navig
guidance</w>
âĸ¶
turf</w>
nun
fications</w>
yemen</w>
charging</w>
xc</w>
broncos</w>
subur
pale</w>
boring</w>
amongst</w>
forthe
emper
omfg</w>
pj
expecting</w>
ðŁĴ«</w>
stl</w>
admin</w>
expectations</w>
swan</w>
shoot
ooooo</w>
minent</w>
ãĢĲ</w>
wallace</w>
stang</w>
saturday
adopted</w>
doubles</w>
homie</w>
omez</w>
dhan
venture</w>
surrounding</w>
file
mobility</w>
dees</w>
wski</w>
brooke</w>
embro
remembers</w>
kara</w>
testim
botan
mtv</w>
sacrifice</w>
jerusalem</w>
dl
Â´</w>
properly</w>
ilion</w>
asi</w>
legit</w>
cope</w>
mcla
recycling</w>
larger</w>
ðŁĴĵ</w>
patric
generous</w>
jared</w>
pf</w>
molly</w>
thomas
judges</w>
hb</w>
sorts</w>
blvd</w>
oven</w>
entering</w>
planes</w>
beet
integration</w>
booked</w>
freed
vern</w>
ashes</w>
topped</w>
depot</w>
welcomed</w>
rena</w>
mick</w>
dand
seeks</w>
gamer
rankings</w>
rene</w>
mut
whisky</w>
firefighters</w>
gues</w>
gather</w>
tourney</w>
demen
yang</w>
newton</w>
automotive</w>
backyard</w>
detailed</w>
mist
tobac
fiber</w>
unusual</w>
gratitude</w>
spare</w>
neys</w>
:*</w>
peri
floating</w>
finalist</w>
donating</w>
dress
broad</w>
bethe
economics</w>
taiwan</w>
edwards</w>
plug</w>
prairi
valen
baba</w>
fad
anas</w>
harper</w>
disorder</w>
applied</w>
patt
bikin
liver</w>
curi
caroline</w>
anner</w>
julian</w>
walking
malcol
screenshot</w>
coding</w>
skincare</w>
activists</w>
mysterious</w>
exact</w>
blocking</w>
mercury</w>
batter
dump
âľĮ</w>
ense
lish
ridiculous</w>
protesters</w>
ðŁĻĪ
lust</w>
sweat</w>
ass
alike</w>
cody</w>
rements</w>
winds
aspir
vienna</w>
pray
...@</w>
boi</w>
candle</w>
assists</w>
tee
derson</w>
pony</w>
fence</w>
conspir
âĺħâĺħ
ooth</w>
epic
barely</w>
aunt</w>
bam</w>
diamonds</w>
endless</w>
screens</w>
cancer
gro</w>
pst</w>
prospec
mosque</w>
helpful</w>
ouri
brother
gujar
cristi
inez</w>
towers</w>
addresses</w>
gray
burton</w>
retweeted</w>
ðŁ¤Ķ
nity</w>
duck
supervis
joan</w>
kinder
sanctu
pied</w>
âı°</w>
łï¸ı</w>
mati
revenge</w>
cester</w>
elife</w>
designers</w>
backed</w>
boli
weight
couch</w>
sures</w>
sits</w>
shrimp</w>
lagos</w>
authorities</w>
osity</w>
holly
computing</w>
factors</w>
abe</w>
panels</w>
ramad
sentence</w>
mission
holm</w>
rb
dads</w>
shanghai</w>
money
sheets</w>
skate</w>
threw</w>
cupcakes</w>
infinite</w>
lis</w>
practicing</w>
essay</w>
kai
asci
mob</w>
ugh</w>
holmes</w>
regg
ikh</w>
mock</w>
collections</w>
pep
ova</w>
salt
nandez</w>
coy
threats</w>
texts</w>
cinnam
pregnancy</w>
pending</w>
stamp</w>
flower
gis</w>
agreed</w>
payne</w>
rover</w>
phra
soft
ffin
fathers</w>
passengers</w>
aways</w>
ala
hes</w>
livan</w>
ins
samuel</w>
ingui
hof</w>
jj</w>
chennai</w>
catal
omic</w>
heath
niece</w>
pumped</w>
integrated</w>
arel</w>
nom</w>
productivity</w>
wanting</w>
visa</w>
diana</w>
twil
itv</w>
camps</w>
rowing</w>
dley</w>
blackand
guards</w>
bells</w>
reverse</w>
vibe</w>
ricky</w>
moss</w>
nyt</w>
âĺĢï¸ı
elle
troy</w>
cudd
evan
womens
foto</w>
mistakes</w>
wicked</w>
mil</w>
cled</w>
memes</w>
cosmo
scholar</w>
reno</w>
ðŁĺĢ
vents</w>
#âĢ¦</w>
terrorists</w>
casey</w>
cardinals</w>
ðŁĺĬðŁĺĬ
venezuela</w>
bola</w>
literacy</w>
tw</w>
eno</w>
contains</w>
austin
financi
evan</w>
harvard</w>
originally</w>
chevro
herald</w>
nottingham</w>
managers</w>
âŀ¡</w>
accepting</w>
walsh</w>
tutorial</w>
entrepreneurship</w>
yacht</w>
requirements</w>
glenn</w>
pede
unfortunately</w>
aching</w>
daisy</w>
gian</w>
nightmare</w>
âĿĹ
rina</w>
bart</w>
emails</w>
opposite</w>
whom</w>
sake</w>
puzzle</w>
dashi
party
blanket</w>
buses</w>
lore
beauty
reason
punjab</w>
windsor</w>
functional</w>
existing</w>
hello
glimp
convin
lak
screaming</w>
rebecca</w>
bliss</w>
northwest</w>
infinity</w>
cosmetics</w>
pulling</w>
coffee
pling</w>
opho
colombia</w>
interiordesign</w>
(+</w>
emotions</w>
sac</w>
sunglasses</w>
saves</w>
df
sixth</w>
aly</w>
ðŁĺ»</w>
deen</w>
devast
politicians</w>
lacrosse</w>
gu</w>
pei</w>
java</w>
combine</w>
coalition</w>
erts</w>
surviv
chad</w>
strian</w>
nn</w>
devi
counc
concern</w>
controller</w>
breast
jury</w>
tum
introduces</w>
ladi
mobile
alz
steady</w>
nurses</w>
hacking</w>
online
ocean
ðŁİĦ
aam
juven
icc</w>
louisiana</w>
arte</w>
streetart</w>
ison
wns</w>
frm</w>
panda</w>
noir</w>
maintain</w>
delay
symptoms</w>
thorn
geome
tern</w>
carried</w>
pru
panor
assy</w>
peru</w>
cloud
spra
pedi
este
tagged</w>
ðŁĺĿ</w>
shadows</w>
nazi</w>
Ø§ÙĦ
corri
âĻ¥âĻ¥
jad
ðŁĩ«
formal</w>
spoken</w>
ðŁĮŀ</w>
enjoy
lopez</w>
outlook</w>
inho</w>
wander
Ùħ
maya</w>
pee
dine</w>
ãĢĳ</w>
briefing</w>
supporter</w>
arily</w>
ghters</w>
naturally</w>
doctorwho</w>
jen</w>
var</w>
newyear</w>
rese
simm
rex
consequ
tomatoes</w>
burst</w>
bravo</w>
burgers</w>
cracking</w>
northeast</w>
biom
mushroom</w>
marque
double
nier</w>
vag
twenty</w>
keyboard</w>
winni
jamaica</w>
parish</w>
:-
mentalhealth</w>
alizing</w>
render</w>
waking</w>
ðŁİĤ
gly
nathan
washing</w>
melissa</w>
jung</w>
loyal</w>
chili</w>
songwriter</w>
guitarist</w>
bowie</w>
neighbors</w>
onymous</w>
asset</w>
tai</w>
headquarters</w>
ðŁĮĪ</w>
ihear
cigare
surg
)"</w>
repl
darling</w>
ðŁĻĦ</w>
zak
sare
ãħĭ
mickey</w>
warehouse</w>
massage</w>
inees</w>
didnt</w>
iw
hurts</w>
engaging</w>
magic
womenin
kitten</w>
mors</w>
cart</w>
titans</w>
colleague</w>
competing</w>
eran</w>
khal
marble</w>
demand
delight</w>
etary</w>
blizz
louise</w>
mls</w>
finishes</w>
experiment</w>
conducted</w>
electronics</w>
itters</w>
caring</w>
whats</w>
symbol</w>
jung
ecu
pix</w>
context</w>
charger</w>
ðŁĺĩ</w>
reig
frag
ëĭ
chad
true
kerry</w>
defending</w>
aint</w>
auton
checkout</w>
barnes</w>
lessly</w>
dt
mme</w>
cloudy</w>
secondary</w>
arez</w>
_:</w>
appa</w>
constant</w>
")</w>
vets</w>
job
ient</w>
ðŁĺŃðŁĺŃðŁĺŃ</w>
mj
french
diver
davies</w>
hhhh</w>
ebook</w>
à¹ī</w>
mariti
breeze</w>
suspended</w>
mato
viet</w>
rahu
sei
bolt</w>
enary</w>
leis
karl</w>
framed</w>
explaining</w>
abc
dealing</w>
nato</w>
jake
expand</w>
leonard</w>
established</w>
dub</w>
armen
elled</w>
vocal</w>
nicholas</w>
orient
kyo
illustrated</w>
ahh</w>
dancers</w>
million
geta
popp
asu
murdered</w>
gible</w>
stoked</w>
griffin</w>
maximum</w>
adrian</w>
encounter</w>
thero
davidson</w>
ðŁį»</w>
holiday
evo</w>
assets</w>
carson</w>
memorable</w>
âļ½</w>
obam
representative</w>
cbd</w>
tricks</w>
vogue</w>
voice
mmmm</w>
sebastian</w>
clif
athy</w>
paralle
ðŁ¤·
pak
evacu
eats</w>
Ø§Ø
touched</w>
organised</w>
spirits</w>
canad
guided</w>
framework</w>
ðŁĮŁ
ped
natural
agar
replaced</w>
anchor</w>
tit</w>
shah
organis
superior</w>
rn
chro
erica</w>
still
coron
chuck
locks</w>
organ</w>
rosen
scam</w>
bened
/#</w>
keen</w>
trevor</w>
vampire</w>
sorted</w>
!'</w>
afford</w>
intro</w>
grace
ðŁĺľ
saur</w>
kickstarter</w>
influen
vu</w>
yup</w>
poc
ðŁİ¥</w>
aar</w>
sang
trek
etsy
tbh</w>
scream</w>
chevrolet</w>
pixel</w>
shepherd</w>
anor
gabriel</w>
twood</w>
sdcc</w>
meters</w>
developers</w>
closure</w>
vw</w>
twitch
ìĹ
seoul</w>
price
hog</w>
nish</w>
hillary
scratch</w>
incen
wagon</w>
disability</w>
panther</w>
chats</w>
gd
witz</w>
sussex</w>
late
denmark</w>
gerald</w>
cancelled</w>
nette</w>
ix
naval</w>
baptist</w>
tet</w>
yad
math
hoy</w>
randy</w>
point
intellec
fruits</w>
wool</w>
guin
pron
theft</w>
condem
marry</w>
nola</w>
architects</w>
cincin
rockets</w>
gentleman</w>
explan
tate</w>
doe</w>
raises</w>
wildlife
wl
insider</w>
blanc</w>
wp</w>
forsale</w>
nyc
powell</w>
unbelievable</w>
pens
goodies</w>
mustang</w>
pens</w>
stays</w>
squash</w>
xoxo</w>
nearby</w>
everton</w>
coco</w>
leagu
khan
stud</w>
southwest</w>
construc
sworth</w>
croatia</w>
lea</w>
sums</w>
aims</w>
ean</w>
vaness
itious</w>
pathy</w>
arcade</w>
bend</w>
suggests</w>
sacram
royals</w>
rier</w>
emir
incl</w>
ank
clark
right
vacc
à¤¾</w>
tane
lib</w>
usc
sales
huh</w>
sally</w>
vera</w>
pga</w>
grows</w>
drum
tree
ethics</w>
suggest</w>
isab
sealed</w>
previously</w>
animated</w>
abdu
rises</w>
glob
predat
scarf</w>
delic
omar</w>
lli</w>
sxsw</w>
python</w>
nebra
funk</w>
reflect</w>
pavilion</w>
tically</w>
chasing</w>
bakery</w>
invasion</w>
koh
believed</w>
cohen</w>
conqu
crafts</w>
nati</w>
clever</w>
governance</w>
samples</w>
fails</w>
âĶ
timo
ritu
striking</w>
inclusive</w>
shocking</w>
cant
requires</w>
drawings</w>
à¸Ń
purchased</w>
dum
zach
warner</w>
console</w>
mansion</w>
fountain</w>
circum
esh</w>
island
milk
profits</w>
halifax</w>
rival
âľĪï¸ı</w>
jenny</w>
sandra</w>
nye</w>
kelly
yal</w>
quad</w>
nos</w>
instein</w>
finalists</w>
midfielder</w>
cue</w>
exceptional</w>
aan</w>
sapp
gettin</w>
saa</w>
fati
slice</w>
volk
swal
lasting</w>
summary</w>
itas</w>
smo</w>
sz
âĺĨ</w>
ipl</w>
flames</w>
enews</w>
hav
hoodie</w>
pitcher</w>
windy</w>
revol
central
tonite</w>
ðŁİīðŁİī</w>
solved</w>
milwau
organizations</w>
weets</w>
refin
sth
ãĥ¼
elin</w>
tona</w>
cinnamon</w>
ðŁİ¨</w>
ðŁİģ</w>
ronaldo</w>
peninsu
omega</w>
elds</w>
designing</w>
eigh
bluet
benz</w>
nug
asha</w>
robots</w>
sudan</w>
choosing</w>
endo
serge
closely</w>
handy</w>
finger
being
arte
survived</w>
flame</w>
milestone</w>
gut</w>
dwar
futures</w>
Ã©e</w>
elo</w>
fridge</w>
elic</w>
ouch</w>
ub</w>
pv</w>
titan
collar</w>
station
nevada</w>
aurora</w>
rd
duncan</w>
âģł</w>
brien</w>
marsh</w>
Ð¾
total
chry
sers</w>
suffe
rachel
college
todays</w>
courts</w>
chit
reunited</w>
gymna
genesis</w>
beside</w>
representation</w>
chant</w>
collector</w>
rak
athens</w>
nigh
munich</w>
languages</w>
flu</w>
participation</w>
___</w>
cv
spectrum</w>
soda</w>
cover
referen
abbo
apa</w>
publication</w>
edm</w>
monica</w>
army
ðŁļĢ</w>
divor
dry
streams</w>
robotics</w>
cider</w>
bullying</w>
approval</w>
stoke</w>
platforms</w>
sierra</w>
extin
ib</w>
hayes</w>
succeed</w>
suffer</w>
atically</w>
dai
lynch</w>
hound</w>
delines</w>
acknow
dated</w>
exclusively</w>
heres</w>
facilit
damaged</w>
charter</w>
lakers</w>
falcon</w>
unveiled</w>
welove
ease</w>
patience</w>
lone</w>
gentle</w>
genetic</w>
producing</w>
gour
shannon</w>
bilities</w>
zimbabwe</w>
pint</w>
daughters</w>
literary</w>
belle
clam
surrounded</w>
kany
neil
pirate</w>
ranger</w>
hbd</w>
natalie</w>
belong</w>
olympi
embassy</w>
scol
ener</w>
akin</w>
loren
bh</w>
:/</w>
diva</w>
denim</w>
hipp
ðŁĩµðŁĩ
arnold</w>
?'</w>
weren</w>
empower
disabled</w>
manor</w>
raspberry</w>
baf
awful</w>
drummer</w>
kardashi
nash</w>
machinelearning</w>
chu</w>
rebels</w>
timing</w>
monroe</w>
tongue</w>
range
pupils</w>
ress</w>
amazon
bz</w>
harley</w>
palmer</w>
balloon</w>
sings</w>
icec
jb</w>
cers</w>
gps</w>
whist
rise
lt
oooo</w>
cattle</w>
shooter</w>
vodka</w>
ucl</w>
mtg</w>
lesli
jonas</w>
dispo
atric</w>
stein
vintage
firms</w>
floyd</w>
cowboy</w>
soooo</w>
isaac</w>
warcraft</w>
disneyland</w>
beautiful
beam</w>
franchise</w>
bun</w>
kag
anon</w>
turbo</w>
sweep</w>
madein
karachi</w>
detective</w>
pennsylvania</w>
controversi
vitamin</w>
aside</w>
chronic</w>
describes</w>
removal</w>
hah</w>
aper
tened</w>
uto</w>
badly</w>
mirac
fry</w>
yea</w>
injec
thermal</w>
compact</w>
thor</w>
teed</w>
urgent</w>
lite</w>
gilli
sophom
ico
chem</w>
pm
fork</w>
freak</w>
chak
recipient</w>
iy
nik</w>
modeling</w>
cans</w>
ðŁıĢ
delux
seam
survivors</w>
radical</w>
investigating</w>
reliable</w>
fm
turt
lighthouse</w>
tool
gown</w>
))
bots</w>
autograph</w>
aid
buffe
hmm</w>
horrible</w>
ssional</w>
anni</w>
à¹Ģ
kits</w>
schi
eternal</w>
huss
sensitive</w>
ru</w>
tastes</w>
checks</w>
imo</w>
portion</w>
skate
eden</w>
halftime</w>
fried
rihanna</w>
tise</w>
flick
cain</w>
sgt</w>
âľĶ</w>
shau
stained</w>
raffle</w>
drove</w>
salman
principles</w>
sho</w>
aru
jess</w>
guine
garbage</w>
myan
jelly</w>
disru
zia</w>
qld</w>
entries</w>
lav
flew</w>
admit</w>
objects</w>
compare</w>
nytimes</w>
cannes</w>
pn</w>
suffol
roc</w>
dana</w>
egg
hist</w>
counsel
'!</w>
physi
imagination</w>
adjust
explosion</w>
plymouth</w>
horror
elliott</w>
bourne
dex</w>
breed</w>
audio
lobster</w>
disappointed</w>
nationwide</w>
((</w>
increases</w>
australi
cedar</w>
staring</w>
racial</w>
eis
gmt</w>
visions</w>
stayed</w>
discussions</w>
dean
curtis</w>
maiden</w>
stellar</w>
happiest</w>
hwy</w>
preseason</w>
carav
mondays</w>
hospitals</w>
glimpse</w>
scholars</w>
jai</w>
terrace</w>
anna
goose</w>
graded</w>
lotus</w>
hung</w>
grocery</w>
stamps</w>
emperor</w>
scoop</w>
inser
cas</w>
existence</w>
heal</w>
falcons</w>
marvel
reducing</w>
terrific</w>
magnetic</w>
performs</w>
barre
pus</w>
treating</w>
icon
wh</w>
declared</w>
trauma</w>
dod
comedian</w>
nikon</w>
bugs</w>
asm</w>
montgom
ibiza</w>
comprehensive</w>
has
santi
fellowship</w>
dash
psal
louisville</w>
spy
fault</w>
dthe
filed</w>
vista</w>
desc
fears</w>
youtu
sps</w>
esp</w>
rig</w>
crime
berger</w>
wonderland</w>
kent
informed</w>
stevens</w>
myth</w>
aston</w>
iri</w>
visitor</w>
atri
producers</w>
alla
personally</w>
separate</w>
agencies</w>
afri
ilan
spoke
nina</w>
squad
dives</w>
depend
liv
fierce</w>
entertaining</w>
chain
scat
borders</w>
palette</w>
spro
osis</w>
derby
tobacco</w>
zio</w>
willie</w>
juvent
zoom</w>
holy
entirely</w>
afe</w>
martinez</w>
beds</w>
pea</w>
bulldogs</w>
ðŁĩªðŁĩ
ibm</w>
neon</w>
ethiopia</w>
teammates</w>
planting</w>
twer
anytime</w>
forbes</w>
Ã³n</w>
runway</w>
nervous</w>
roger
pile</w>
chanc
apocaly
uw
oi</w>
drought</w>
territory</w>
brick
creatures</w>
goin</w>
waff
gren
southeast</w>
jean
ambul
edited</w>
strap</w>
cv</w>
aaron
ãĥ»ãĥ»
tsu
description</w>
kindly</w>
clutch</w>
immer
enor
womensday</w>
orange
rag
obvious</w>
hyder
channels</w>
mango</w>
meyer</w>
raining</w>
getty</w>
pilgri
coordinator</w>
upload</w>
nintendo
donuts</w>
sanchez</w>
apparel</w>
jr
zzi</w>
,@</w>
jefferson</w>
accessible</w>
greatly</w>
eid</w>
initial</w>
buddha</w>
paris
mascot</w>
â¬ĩï¸ı</w>
schwar
siri
spinning</w>
mortgage</w>
echo</w>
endange
gedly</w>
chloe</w>
enhance</w>
karnat
kry
explores</w>
ðŁĴģ
affair</w>
icals</w>
alla</w>
dart
dolphins</w>
differences</w>
squirrel</w>
augh</w>
drones</w>
ellen
restore</w>
paw
unfor
pike</w>
hilton</w>
collab</w>
consumers</w>
coinci
outcomes</w>
ppp</w>
aq
coupon</w>
liest</w>
sims</w>
kho
aves</w>
spoon</w>
pudding</w>
corbyn</w>
haters</w>
exams</w>
slave</w>
.!</w>
psa</w>
apples</w>
tamil</w>
sed
coke</w>
zzo</w>
losange
carbon
clair</w>
...)</w>
khu
craig
exploration</w>
sanctuary</w>
sue
alway
dementia</w>
wonders</w>
superhero</w>
pakistani</w>
browns</w>
bluetooth</w>
locker</w>
marc
eventu
deluxe</w>
rodriguez</w>
âĿ¤âĿ¤</w>
robb
ðŁĴ¦</w>
linux</w>
tens</w>
intelligent</w>
seed
voter</w>
sler</w>
peaks</w>
intern</w>
teenage</w>
peninsula</w>
handling</w>
tie
cousins</w>
wendy</w>
mee</w>
à¹Ģà¸
dino</w>
ðŁĴ°</w>
ðŁĺĥ
zee</w>
sbury</w>
tragedy</w>
bk</w>
bore
zin
warns</w>
idiot</w>
touching</w>
continental</w>
tacos</w>
safari</w>
washed</w>
podium</w>
morrison</w>
forests</w>
cbc
alon
particular</w>
beads</w>
invented</w>
loch</w>
lighter</w>
wherever</w>
ide</w>
documents</w>
awe</w>
kr</w>
nowhere</w>
miner
stit
rox
contribute</w>
hardy</w>
clan</w>
object</w>
cait
ðŁĴķðŁĴķ</w>
happier</w>
vegetables</w>
tart</w>
gag
nominee</w>
heavily</w>
panic</w>
jd</w>
theresa</w>
atm</w>
uph
sfc</w>
suri
drink
nal
revel
kl</w>
avocado</w>
nomination</w>
madonna</w>
sharon</w>
malcolm</w>
controlled</w>
shers</w>
revival</w>
legislation</w>
shoots</w>
nin</w>
commentary</w>
pros</w>
humanrights</w>
stranger</w>
mitch</w>
pipeline</w>
legally</w>
thu</w>
gilbert</w>
toll</w>
granted</w>
ghs</w>
iranian</w>
refreshing</w>
duk</w>
abi</w>
prime
joseph
mosa
statistics</w>
productions</w>
merry
patel</w>
sax
humanitarian</w>
structures</w>
emissions</w>
towns</w>
freel
stering</w>
ratings</w>
allegedly</w>
cabin</w>
stl
wade</w>
flyers</w>
trim</w>
promising</w>
zu</w>
ballot</w>
comparison</w>
freeze</w>
outer</w>
greatness</w>
assign
snowy</w>
rale
tories</w>
mediter
knock
consultant</w>
cincinnati</w>
analyst</w>
scoo
jews</w>
approxim
pure
portraits</w>
cyrus</w>
ational
loans</w>
acquis
elu
acceptable</w>
union
watercolor</w>
rust</w>
battles</w>
perfu
seasonal</w>
serial</w>
mindset</w>
riot</w>
feld</w>
ennial</w>
closet</w>
priest</w>
tanks</w>
intl</w>
screw</w>
bum</w>
abdul
oux</w>
explained</w>
rica</w>
imaging</w>
lawyers</w>
buried</w>
ãĥ»ãĥ»ãĥ»</w>
earl</w>
âĢķ</w>
lton</w>
restored</w>
stripes</w>
foss
demands</w>
stealing</w>
alexis</w>
mund</w>
aker
urus</w>
wardro
hugs</w>
genre</w>
ego</w>
ÙĦ
participated</w>
babes</w>
banquet</w>
tious</w>
hemi
dsb</w>
lost
milwaukee</w>
jenner</w>
gem
outra
loses</w>
idi</w>
reps</w>
ðŁİ§</w>
regulation</w>
flaw
fang
vibrant</w>
ramp</w>
rains</w>
wellbeing</w>
soviet</w>
viewers</w>
depo
libraries</w>
bigo
sery</w>
gill
destruction</w>
coz</w>
cx</w>
bridal</w>
alds</w>
planted</w>
amateur</w>
lud
cheering</w>
showcas
profile
iu
vertical</w>
packers</w>
wizard</w>
skip</w>
slight</w>
beau</w>
airways</w>
much
rera</w>
ðŁĮĬ</w>
absor
patio</w>
packages</w>
sells</w>
mentally</w>
ðŁĺ¢
reynolds</w>
kare
tribun
walt</w>
knit</w>
taste
surrey</w>
bounce</w>
creature</w>
bare</w>
betting</w>
sure
miley</w>
laughs</w>
alore</w>
cyn
tl
artist
annah</w>
warmer</w>
dynamics</w>
lunchtime</w>
maritime</w>
vulnerable</w>
ðŁĴĥ</w>
wolver
durham</w>
constantly</w>
amin
sibl
:@</w>
bullet
kach
angelo</w>
wilder
doom</w>
desktop</w>
lawsuit</w>
kca</w>
henderson</w>
inviting</w>
betty</w>
tawards</w>
rafa
leaked</w>
andi</w>
gems</w>
afl</w>
velo
mediterran
probe</w>
totten
stephanie</w>
snation</w>
combe</w>
qs</w>
overcome</w>
assassin
rav
filip
winnipeg</w>
shil
determined</w>
kas</w>
outre
regret</w>
guides</w>
aaa
ðŁĺĪ
wives</w>
manife
erly</w>
smy
shima</w>
xing</w>
pixel
jacob
accommod
toy
ono</w>
poo</w>
tier
answe
ðŁĴģ</w>
rosa</w>
lease</w>
belongs</w>
thar
eventually</w>
neither</w>
goa</w>
skiing</w>
atra</w>
agh</w>
broadcasting</w>
fury</w>
pyram
dice</w>
volkswag
womens</w>
provider</w>
bombs</w>
missile</w>
whip</w>
dick
norwe
backup</w>
elder</w>
mature</w>
concerts</w>
gious</w>
squee
goodmorning</w>
braves</w>
^_
aussie</w>
luna</w>
males</w>
heck</w>
fortn
romeo</w>
steelers</w>
pn
peer</w>
represents</w>
Â«</w>
katy</w>
miguel</w>
require</w>
chains</w>
lur
immediate</w>
timber
âĸ¶ï¸ı</w>
advocacy</w>
export</w>
anz
tiffany</w>
author
ðŁİĪ</w>
dudes</w>
chilly</w>
hid</w>
harm</w>
bug
monster
terrier</w>
tuc
storytelling</w>
tak</w>
inti
immigrants</w>
bis</w>
reaches</w>
compassion</w>
johnny
contributions</w>
ðŁĲ¶
mechanical</w>
impression</w>
ranks</w>
kobe</w>
menting</w>
blossom</w>
pablo</w>
builder</w>
bombing</w>
twel
sullivan</w>
omo
pete
demi</w>
kudos</w>
wbb</w>
tgif</w>
massach
neighbor</w>
chefs</w>
engines</w>
pune</w>
gained</w>
phantom</w>
sdays</w>
extend</w>
gran</w>
centers</w>
jacqu
datasci
sleepy</w>
elvis</w>
answered</w>
slot</w>
cony</w>
flexible</w>
tially</w>
letics</w>
%,</w>
andrews</w>
sible</w>
momma</w>
vino</w>
dox</w>
invitational</w>
twilight</w>
jade</w>
illery</w>
johns</w>
fou
pv
---></w>
breakdown</w>
billion
printer</w>
mond
cbc</w>
maggie</w>
legion</w>
dub
kurt</w>
poor
parenting</w>
regions</w>
bikini</w>
beware</w>
sional</w>
auburn</w>
kidding</w>
amples</w>
span</w>
contempor
cic
habits</w>
ako</w>
prefe
buddies</w>
itz
emily
personnel</w>
mountain
versus</w>
ðŁĺ¬</w>
earning</w>
sink</w>
dari</w>
uu</w>
swin
ister</w>
brutal</w>
nac
kata</w>
cloth</w>
amand
ðŁĶĹ</w>
neo
alumin
weekends</w>
nebraska</w>
codes</w>
delayed</w>
bruno</w>
proven</w>
inc
ight
flan
oro</w>
lambert</w>
regulat
wf
massachuse
kardashian</w>
bernard</w>
fiesta</w>
volcano</w>
grandpa</w>
anca</w>
dre</w>
stitu
meaning
foam</w>
auck
ated
rl</w>
hotel
persons</w>
dynasty</w>
ellor</w>
mai</w>
amne
styling</w>
avier</w>
eg</w>
vegetarian</w>
,âĢ¦</w>
founders</w>
stain</w>
gd</w>
cycles</w>
skyline</w>
tractor</w>
exists</w>
tral</w>
kidney</w>
maril
instag
sette</w>
addict</w>
triangle</w>
flashback
controversial</w>
zon</w>
pins</w>
ias</w>
tray</w>
township</w>
delegates</w>
spam</w>
hms</w>
crane</w>
peoples</w>
olo
faction</w>
butes</w>
onica</w>
delegation</w>
newprofile
elier</w>
mca</w>
wand
gely</w>
losangeles</w>
berke
tive
disrup
zza</w>
casa</w>
jordan
fordshire</w>
gathered</w>
ichi</w>
attendees</w>
à¸Ńà¸
peppers</w>
coin
bourbon</w>
ernity</w>
rotary</w>
behaviour</w>
jeremy
teamwork</w>
compliance</w>
tremend
ðŁĩ§
buhari</w>
cambo
buyers</w>
hagen</w>
buds</w>
bayern</w>
monte</w>
smells</w>
anza</w>
athlon</w>
described</w>
workforce</w>
giving
api</w>
investments</w>
dail
selena</w>
database</w>
thum
mortal</w>
student
buyer</w>
dover</w>
garten</w>
attle
loyalty</w>
genoci
holocau
theaters</w>
ruling</w>
venus</w>
patent</w>
chun
abby</w>
awake</w>
massacre</w>
bangalore</w>
breaking
simmons</w>
justi
hale</w>
edchat</w>
ggles</w>
hawk
marking</w>
headlines</w>
strom</w>
cove</w>
breathtaking</w>
medals</w>
haircut</w>
christine</w>
telegraph</w>
gujarat</w>
jura
cane</w>
shore
propaganda</w>
mueller</w>
........</w>
savi
stomach</w>
throws</w>
tab</w>
warm
jong</w>
renowned</w>
hir</w>
rais
mushrooms</w>
guaranteed</w>
boa</w>
mj</w>
revolutionary</w>
certification</w>
bruins</w>
join
wes</w>
passport</w>
cg</w>
sexu
capable</w>
wv</w>
tones</w>
jackets</w>
accompan
spinach</w>
forever
blair</w>
watts</w>
gl</w>
couples</w>
prairie</w>
newprofilepic</w>
logistics</w>
massachusetts</w>
jaguar</w>
oid</w>
weal
underwater</w>
moz
yi</w>
maths</w>
myanmar</w>
preps</w>
suffered</w>
trace</w>
wali</w>
ahhh</w>
borg</w>
stitch</w>
culin
realise</w>
infection</w>
discrimination</w>
shame
ankle</w>
humid
yt</w>
bracket</w>
truck
triu
easter
community
postcard</w>
involving</w>
tyler
caramel</w>
overview</w>
examples</w>
integrity</w>
basement</w>
instruments</w>
anium</w>
atus</w>
gher</w>
laundry</w>
achieve
geneva</w>
pricing</w>
hyderabad</w>
belief</w>
meta
jaw
accounting</w>
leader
cristiano</w>
couture</w>
cyp
vised</w>
,,,</w>
knu
hick
breaker</w>
bram
rab
moor
hamas</w>
graduating</w>
puppies</w>
akh
tah
aches</w>
rie
opini
gta
reign</w>
tragic</w>
rever
pill
pineapple</w>
touches</w>
dare
leys</w>
ilo</w>
interiors</w>
scouts</w>
bart
enzie</w>
dono
brock
christians</w>
ensemble</w>
Â·</w>
cinemas</w>
newport</w>
airline</w>
winston</w>
leigh
contents</w>
prescri
urge</w>
trout</w>
fically</w>
ilia</w>
subsi
arer</w>
âļ¾ï¸ı</w>
wounded</w>
ðŁĻĤ</w>
pepper
ðŁĴŀ
fitted</w>
aff</w>
resur
thursdaythoughts</w>
zero
archaeology</w>
div</w>
jee</w>
ion
awaiting</w>
cozy</w>
beauties</w>
bald</w>
data
grizz
stalk</w>
kinds</w>
cleared</w>
jessic
regular
aliens</w>
place
bos
bizar
thisis
ðŁĴĢ
tottenham</w>
mafia</w>
slam
ariana</w>
carroll</w>
backpack</w>
carey</w>
univ</w>
rg</w>
pep</w>
digit
tattoos</w>
agon</w>
volunteering</w>
differen
consumption</w>
kathr
headphones</w>
tshirt</w>
ob</w>
element</w>
retail
shru
algori
container</w>
conscious</w>
fil</w>
coming
rash
urope</w>
define</w>
gior
feminist</w>
flowing</w>
routes</w>
glaci
fert
somerset</w>
antes</w>
tweeps</w>
$$</w>
hour
endangered</w>
yearsof
roh
popped</w>
backing</w>
basil</w>
brake</w>
monaco</w>
lgbtq</w>
prague</w>
utility</w>
cassi
gateway</w>
haunted</w>
schul
ðŁİµ</w>
should
walkingdead</w>
completing</w>
danny
montgomery</w>
penguin</w>
ssi</w>
merchandi
ðŁĳĳ
church
hates</w>
captain
breathing</w>
cet</w>
fairly</w>
approaches</w>
companion</w>
surprising</w>
kanye</w>
pey
hindi</w>
targeted</w>
lords</w>
deut
digging</w>
german
rut
energy
closest</w>
yun
apologi
à¸±</w>
sack</w>
rup</w>
ddy
portal</w>
dough</w>
bats</w>
ðŁĵ°</w>
atur
grapher</w>
pires</w>
motors</w>
ðŁĮ¹
jc
dang</w>
tuk</w>
clue</w>
usc</w>
page
dless</w>
brows</w>
jus</w>
ading</w>
remarks</w>
oom</w>
cardio
stefan
armstrong</w>
âĢ¢âĢ¢
niest</w>
belgian</w>
biop
soy</w>
lof
íĥ
qt</w>
flashbackfriday</w>
cee</w>
ģà¸
wreck</w>
marines</w>
amendment</w>
wardrobe</w>
voy</w>
burned</w>
guitars</w>
rainf
lifel
ssil</w>
ounce</w>
external</w>
ckey
mesh</w>
sheikh</w>
invitation</w>
suggesti
popcorn</w>
phenomenal</w>
anonymous</w>
tuna</w>
chicago
oval</w>
dely</w>
locals</w>
(&</w>
prof
novel
finder</w>
sparks</w>
laven
infu
nicks</w>
quant
rae</w>
exec</w>
distingui
stances</w>
mutual</w>
shal
unveils</w>
edmonton</w>
zania</w>
adio</w>
viewer</w>
bradford</w>
auditorium</w>
quis
react</w>
http</w>
lero
cheeky</w>
impacts</w>
tak
edt</w>
desperate</w>
tay</w>
ìĦ
settle</w>
bargain</w>
resume</w>
unite
thrown</w>
kest</w>
seys</w>
marching</w>
amit
decline</w>
schar
metr
stanford</w>
linke
berra</w>
dolls</w>
rugby
jami
bor</w>
roadtrip</w>
dinosaur</w>
mik
sunder
rem
bk
overseas</w>
naughty</w>
implementation</w>
iamsrk</w>
luncheon</w>
firing</w>
miami
perez</w>
thee</w>
zon
gifted</w>
conversion</w>
ceramic</w>
¡ï¸ı
pedro</w>
ìĨ
vick
!@</w>
heed</w>
sid</w>
bw</w>
document</w>
plun
grants</w>
fantasy
predictions</w>
valid</w>
carved</w>
graduated</w>
ðŁĳįðŁı»</w>
nationally</w>
chy
afl
resso</w>
blank</w>
rivals</w>
jig
eties</w>
omics</w>
unemp
bound
sko
inspection</w>
paral
highs</w>
crisp</w>
bans</w>
oba</w>
[@</w>
cospla
costumes</w>
recall</w>
mouth
nigel</w>
bts
tera</w>
kov</w>
docs</w>
westminster</w>
dict</w>
gravity</w>
kari</w>
rogue</w>
tted</w>
wark</w>
idaho</w>
wend
awi</w>
queensland</w>
processes</w>
cliffe</w>
mick
compens
opol
they
clari
wikipedia</w>
salmankhan</w>
hazard</w>
preston</w>
sweetest</w>
pdf</w>
chees
trilo
southafrica</w>
burnt</w>
($</w>
contain</w>
tp</w>
submitted</w>
soundcloud</w>
atu
rez</w>
wordpress</w>
corrupt</w>
nf
maker
íķ
paras
advent</w>
rial</w>
cafe
fossil</w>
!!!!!!!</w>
cows</w>
cj</w>
spur
institutions</w>
landmark</w>
entit
reut
his
alzheim
wemb
reggae</w>
mosqu
stat</w>
identified</w>
dealer</w>
ream</w>
reland</w>
tension</w>
ðŁĩ©
wrapping</w>
deeper</w>
frat
reddit</w>
aris</w>
morocco</w>
.."</w>
blow
mapping</w>
priorities</w>
inga</w>
swap</w>
rewards</w>
conspiracy</w>
creative
cj
congressional</w>
vault</w>
plex</w>
sophomore</w>
shadow
eless
ðŁĺħ
darts</w>
aldub</w>
annoying</w>
props</w>
nas</w>
aluminum</w>
hbo</w>
offense</w>
jill</w>
onions</w>
laur
tae
hardest</w>
shro
gaining</w>
measure
edtech</w>
cyprus</w>
tara</w>
angeli
carlo</w>
goon</w>
alli</w>
implic
jupit
resilience</w>
hail
balanced</w>
)...</w>
joyce</w>
gra</w>
theli
defined</w>
shipped</w>
mainly</w>
mina</w>
lm</w>
sacri
ober
pim
claiming</w>
enters</w>
corey</w>
bok</w>
cried</w>
cooling</w>
danielle</w>
pharmacy</w>
thorough
cake
klo
outreach</w>
zens</w>
digitalmarketing</w>
valent</w>
snp</w>
herb</w>
mrw</w>
cafÃ©</w>
captures</w>
notre</w>
triumph</w>
pancakes</w>
cumber
spike</w>
dation</w>
bigg
sper</w>
critical
amal
tooth
founding</w>
astro</w>
'#</w>
quantum</w>
thames</w>
unc</w>
pride
airbus</w>
knocked</w>
undefeated</w>
mediterranean</w>
calcu
clown</w>
sensor</w>
hammer
forgive</w>
cushi
berry
majestic</w>
elect</w>
politan</w>
gta</w>
kari
burke</w>
seahawks</w>
volkswagen</w>
rei
landscapes</w>
casu
grandfather</w>
listened</w>
//
startrek</w>
rainfall</w>
furry</w>
vier
stark</w>
rifle</w>
ffa</w>
leges</w>
hillaryclinton</w>
minus</w>
correctly</w>
architectural</w>
prece
upside</w>
boxer</w>
ðŁĻĮðŁı¼</w>
isai
det</w>
provo
tissue</w>
spooky</w>
veled</w>
recon
prospects</w>
quebec</w>
âļ«
igno
anatomy</w>
shapes</w>
wp
pinterest</w>
hore</w>
anes</w>
pickup</w>
tip
pradesh</w>
hugh</w>
coe</w>
pok
grammy</w>
wellington</w>
stigate</w>
righ
leap</w>
kingston</w>
scenic</w>
gosh</w>
vani
aug
sary</w>
zier</w>
bureau</w>
linson</w>
conte
fragr
allan</w>
gaw
lana</w>
collision</w>
surveill
renais
arrange
sali
doin</w>
brance</w>
brendan</w>
ourse</w>
incoming</w>
suspension</w>
à´
lla</w>
educators</w>
intri
dae</w>
biography</w>
bulgar
villain</w>
gothic</w>
rwanda</w>
ew</w>
mayor
meetup</w>
democrat</w>
morgan
sudden</w>
tesco</w>
carrot</w>
bomber</w>
mckin
rene
funday</w>
agricultural</w>
hahah</w>
showtime</w>
forming</w>
cola</w>
scorpi
quote
poppy</w>
slife</w>
daz
tub</w>
nen</w>
mot</w>
ðŁĺ»
sore</w>
elderly</w>
ove</w>
skinny</w>
umi</w>
anco</w>
manship</w>
were
gv
kah</w>
folding</w>
neat</w>
samantha</w>
danish</w>
ukrain
humidity</w>
nutri
jakarta</w>
candles</w>
oooooooo
atile</w>
strength
ibra
bapti
charleston</w>
frames</w>
girls
clearing</w>
gluten
##</w>
supernatural</w>
jubi
phone
hein
drun
leak</w>
investor</w>
yer
domain</w>
ballroom</w>
mish
appli
offshore</w>
blaze</w>
doro
âĺķï¸ı</w>
winery</w>
sharif</w>
adore</w>
nir
safer</w>
sigh</w>
ascri
strongly</w>
tracy</w>
cker
oll</w>
faithful</w>
eyed</w>
delightful</w>
vism</w>
karnataka</w>
titan</w>
whar
jerseys</w>
refur
heaven
grip</w>
panama</w>
preli
gluten</w>
odd
content
ponti
tioning</w>
ecommerce</w>
federation</w>
flawless</w>
gear
tires</w>
byr
police
cuban</w>
tributes</w>
ticul
churches</w>
nursery</w>
diaries</w>
museums</w>
snapped</w>
ivan
wight</w>
tourists</w>
ramadan</w>
trent</w>
prophet</w>
wondered</w>
focusing</w>
hid
icons</w>
iq
ambulance</w>
pist
funniest</w>
timeless</w>
srilan
buys</w>
kids
colourful</w>
ashi
chir
mum
ðŁĵļ</w>
letter
xen
reuters</w>
preserve</w>
inting</w>
step
fuji
univer
iu</w>
showdown</w>
poems</w>
surveillance</w>
suspected</w>
tae</w>
solving</w>
tomb</w>
mothersday</w>
carpen
recruit</w>
pilots</w>
broc
mixing</w>
fridays</w>
tyr
representatives</w>
trapped</w>
abdul</w>
freestyle</w>
cluster</w>
âļłï¸ı</w>
kd</w>
skill
pitt</w>
exo
commerci
museum
locally</w>
gina</w>
nobel</w>
immune</w>
frac
capsu
mained
attempts</w>
bulldog</w>
bespoke</w>
singers</w>
spelling</w>
segment</w>
natures</w>
tick</w>
lipstick</w>
cleaner</w>
gettable</w>
precision</w>
âĢ¼ï¸ı
thood</w>
reef</w>
nope</w>
billy
digi
musi
rival</w>
figured</w>
tality</w>
sunny
berk
awww</w>
awaits</w>
unreal</w>
copen
asylum</w>
exotic</w>
buen
mock
enable</w>
archy</w>
fra</w>
plastic
almond</w>
ampli
displays</w>
abbott</w>
sme</w>
xp</w>
ðŁĻĥ</w>
graphic
ived</w>
mara</w>
caution</w>
leaks</w>
enberg</w>
ulu</w>
unicorn</w>
cannon</w>
apprentic
ðŁĺĺðŁĺĺ
bball</w>
willow</w>
atics</w>
amas</w>
manufacturer</w>
campaigns</w>
porters</w>
floors</w>
lsu</w>
type
kej
honorary</w>
itim
tole
minecraft</w>
dx</w>
mash</w>
rio
consequences</w>
ronald</w>
gossi
suffolk</w>
muse</w>
rbi</w>
livemusic</w>
ivan</w>
ðŁİ¤</w>
leu
patriot</w>
manit
lanca
homedecor</w>
dear
sigma</w>
tide
strings</w>
vita</w>
sequel</w>
tryna</w>
investigate</w>
boris</w>
vegan
barrier</w>
mindfulness</w>
webb</w>
hustle</w>
inda</w>
tanzania</w>
stray</w>
texas
cag
diagnosis</w>
woman
gw</w>
obsession</w>
lative</w>
nufc</w>
flynn</w>
momentum</w>
sofa</w>
wald</w>
vegetable</w>
tucker</w>
supper</w>
seab
arro
seag
venting</w>
councill
splat
calcul
..#</w>
comfy</w>
odisha</w>
stopp
warfare</w>
caes
à¨
coy</w>
priceless</w>
insec
ðŁĺĽ</w>
controls</w>
empowerment</w>
datascience</w>
perpe
genic</w>
eres</w>
trudeau</w>
mano
slavery</w>
expanding</w>
mahe
failing</w>
saga</w>
photographs</w>
crest</w>
reon</w>
surfing</w>
hie</w>
ðŁįĢ</w>
jae</w>
fellows</w>
southampton</w>
solom
cester
tability</w>
horn
sect</w>
hee</w>
coleman</w>
atlas</w>
explorer</w>
consultation</w>
copyright</w>
organizing</w>
denied</w>
monkeys</w>
noodles</w>
bris</w>
flor
dough
bonds</w>
shocked</w>
ecosystem</w>
carefully</w>
wm</w>
apartments</w>
curve</w>
sandiego</w>
mustard</w>
commen
ceremon
ech
ruth
ðŁĻĮðŁı»</w>
hawai
filmed</w>
tear
asingly</w>
cair
watt</w>
instrument</w>
outta</w>
yeol</w>
riverside</w>
ë°
.:</w>
norwich</w>
alog</w>
migrants</w>
newman</w>
ride
sprink
targeting</w>
believe
torch</w>
reflects</w>
permission</w>
ffman</w>
enemies</w>
basics</w>
seized</w>
sundays</w>
lei
hassan</w>
endo</w>
hc
stad
lements</w>
kkkk
nano
shark
mana</w>
onic
treatments</w>
early
collaborative</w>
shuttle</w>
branches</w>
misses</w>
mainedcm</w>
apers</w>
kyle
carrie</w>
leisure</w>
shet
birding</w>
advances</w>
ðŁĵĿ</w>
popular
diane</w>
abe
rewar
neighbour
kpop</w>
remembrance</w>
playground</w>
rub
krishna</w>
ebola</w>
inquiry</w>
epa</w>
lumin
organisation</w>
abraham</w>
normally</w>
preten
janet</w>
wt
ðŁĴİ</w>
encouraging</w>
astic</w>
bump</w>
sydney
sz</w>
ssss</w>
garrett</w>
ðŁĵ»</w>
consulting</w>
romania</w>
spotting</w>
chancellor</w>
arma
prestigious</w>
ðĿĲ
tad
cryst
competit
ratio</w>
cataly
brow</w>
jur
viking</w>
commute</w>
yday</w>
layers</w>
dumb
escal
genocide</w>
fill
gupta</w>
stepping</w>
sei</w>
foto
wildcats</w>
coli</w>
project
earnings</w>
str</w>
geons</w>
completion</w>
bm</w>
decorated</w>
crawford</w>
afghan</w>
scare</w>
visibility</w>
hib
direction
stroll</w>
christina</w>
alternate</w>
clare</w>
stylist</w>
behold</w>
sance</w>
leopard</w>
acquired</w>
narrative</w>
ashi</w>
thea
????
peas</w>
atch</w>
slides</w>
leen</w>
renewable</w>
english
quir
coaster</w>
rx</w>
fools</w>
matchday</w>
mism</w>
amazing
zig
keting</w>
wont</w>
towel</w>
diab
stake
nm
melt</w>
ethan</w>
grape</w>
politician</w>
smen</w>
íĺ
reo
weddings</w>
catcher</w>
oracle</w>
memo
ðŁĮ´</w>
eck</w>
robbie</w>
norwegian</w>
operator</w>
amor</w>
sewing</w>
jul</w>
xie</w>
uv</w>
fifty</w>
mega
tattoo
liberals</w>
upri
trafficking</w>
richardson</w>
suv</w>
kip</w>
messy</w>
tremendous</w>
glou
courtney</w>
lad
stereo
myers</w>
idio
^_^</w>
manning</w>
dye</w>
wd
throne</w>
junk</w>
asu</w>
provincial</w>
kook</w>
wrc</w>
fineart</w>
hampshire</w>
renaissance</w>
bred</w>
fallout</w>
sj</w>
snl</w>
alam</w>
torture</w>
fyi</w>
shines</w>
paw</w>
char</w>
henry
crow</w>
acious</w>
dian
paige</w>
bare
stockholm</w>
scenery</w>
ðŁĩ·
jeffrey</w>
push
decoration</w>
ned
cute
brigade</w>
lavender</w>
invites</w>
esports</w>
voir</w>
dried</w>
transpl
surgeon</w>
novels</w>
pulls</w>
sony
lunar</w>
mane</w>
ivy</w>
frustr
dorset</w>
sai
torres</w>
ssion
shutdown</w>
suggestions</w>
writing
eo
battlefield</w>
uga</w>
ðŁĲ¾
vacu
splac
git
ug</w>
highland</w>
%)</w>
mermaid</w>
sacramento</w>
tails</w>
pw</w>
kah
tell
enhanced</w>
ìķ
auckland</w>
cruel
ðŁ¤©</w>
audre
sailor</w>
grammar</w>
glove</w>
deon</w>
inflam
freshly</w>
kell
zip</w>
christie</w>
mild</w>
dixon</w>
instructor</w>
gence</w>
ãħł
subjec
constitutional</w>
crowds</w>
invisible</w>
ruins</w>
dak</w>
sip</w>
plaque</w>
pouring</w>
complex
zine</w>
stead
flet
transmission</w>
loway</w>
arun
increasingly</w>
aud
transparen
crowned</w>
scoun
blizzard</w>
luxu
fiers</w>
achievements</w>
hunters</w>
rocked</w>
basin</w>
violet</w>
proves</w>
achieving</w>
prosper
sega</w>
float</w>
vian</w>
xiv</w>
polic
tura</w>
approximately</w>
wanderlust</w>
keepers</w>
getaway</w>
cod
polis</w>
bryan
colts</w>
talents</w>
yogur
glutenfree</w>
wrist</w>
gry
czech</w>
ðŁİĪ
eville</w>
ðŁıĪ
tox</w>
daniels</w>
amer</w>
bids</w>
weareone
metab
gt
boyz</w>
pdx</w>
possession</w>
pushed</w>
shrine</w>
realistic</w>
trigger</w>
navi
rumors</w>
naf
jenkins</w>
trun
communi
ÃĹ</w>
gamers</w>
armor</w>
mohammed</w>
balcony</w>
yah
strongest</w>
rhythm</w>
unforgettable</w>
kp
hobb
custody</w>
gregor</w>
rita</w>
aesthetic</w>
ilation</w>
sponsoring</w>
nay</w>
kidnapp
shs</w>
rajas
meg</w>
significantly</w>
buttons</w>
lac</w>
versions</w>
essentials</w>
opinions</w>
kro
dprinting</w>
widely</w>
dk</w>
uran</w>
yal
requested</w>
cn</w>
curric
plum</w>
grun
vm
devon
myo
relation</w>
juventus</w>
rouge</w>
minority</w>
mines</w>
jupiter</w>
nine
oxygen</w>
frankie</w>
unesco</w>
fabric
disgusting</w>
salman</w>
detection</w>
lanka</w>
dac
ðŁĩ«ðŁĩ·</w>
argument</w>
shelves</w>
celtics</w>
roberto</w>
pigs</w>
hedge
faul
powering</w>
butterflies</w>
fir</w>
remake</w>
atti</w>
como</w>
empha
kendall</w>
pokemon
seating</w>
dans</w>
baldwin</w>
ðŁĳ»</w>
leslie</w>
onedirection</w>
timber</w>
iman</w>
font</w>
eder</w>
dion</w>
steph</w>
format
gregory</w>
prop</w>
hex
ruin</w>
sory</w>
infer
naw
barak</w>
sdgs</w>
karao
lush</w>
vander
endent</w>
gis
afro
soccer
ayan</w>
tuni
lung</w>
dayof
alexa</w>
marath
addicted</w>
agile</w>
hygi
lightweight</w>
ì§
mandela</w>
joey
ancy
hum</w>
bir</w>
memorial
jimin</w>
ginger
vak
javascri
crops</w>
origins</w>
dari
piper</w>
import</w>
aggressive</w>
prediction</w>
repairs</w>
cracker</w>
voyage</w>
nike
mummy</w>
linkedin</w>
countryside</w>
border
glass
pert</w>
sals</w>
shoe
autographed</w>
walnut</w>
collegi
salary</w>
pairing</w>
ðŁĮ¸
cathol
sweethe
defeats</w>
strengthen</w>
rooftop</w>
improvements</w>
barriers</w>
uru
tally</w>
ruled</w>
ðŁĨļ</w>
naija</w>
emoji</w>
percent
gio
probs</w>
once
admits</w>
paths</w>
liar</w>
daytona</w>
peters</w>
cali</w>
calli
mug
osa
aph
aby
hyde</w>
ethnic</w>
plains</w>
olf</w>
hahahahaha</w>
holic</w>
?!?!</w>
subli
blacks</w>
mot
ghton</w>
lovin</w>
brent</w>
baru</w>
lati
dew</w>
ateau</w>
qa</w>
painful</w>
busters</w>
static</w>
ðŁĩ¨ðŁĩ¦</w>
notebook</w>
outfits</w>
sies</w>
rf</w>
floods</w>
ÑĢ
throat</w>
suici
rovers</w>
bengal</w>
prepares</w>
blog
miniature</w>
Ø¨
amphi
comb</w>
rsp
intimate</w>
greene</w>
Ìĩ</w>
altar</w>
surgical</w>
vessel</w>
...?</w>
gavin</w>
gator</w>
threatened</w>
zar</w>
robbery</w>
dier</w>
promoted</w>
yg</w>
xs</w>
subs</w>
interviewing</w>
threatening</w>
dozen</w>
meado
waterfall</w>
nintendoswitch</w>
calum</w>
ministers</w>
drop
universities</w>
warned</w>
tactics</w>
ðŁĩ²
refuse</w>
adju
vast</w>
ðŁĺ´</w>
mcfc</w>
libya</w>
nofilter</w>
distributed</w>
reser
ronnie</w>
deco</w>
javascript</w>
monk</w>
interests</w>
flex
martha</w>
sties</w>
ood
ðŁ¤£ðŁ¤£
eun
bali
gomez</w>
stimul
moderate</w>
dity</w>
iris</w>
straw</w>
consistent</w>
directions</w>
adopt
salsa</w>
croo
recovered</w>
blackfriday</w>
lancaster</w>
accept
weareoneexo</w>
builds</w>
freeman</w>
airplane</w>
dition
belong
jamie
pitching</w>
lif
omin
crispy</w>
prepping</w>
veg</w>
chang</w>
accomplished</w>
gracias</w>
dolphin</w>
elector
culinary</w>
superbowl</w>
wala</w>
pursuit</w>
blackberry</w>
bean
cardinal</w>
proved</w>
immigrant</w>
strictly</w>
holocaust</w>
passage</w>
haus</w>
coup</w>
purse</w>
harass
<<</w>
leed
adobe</w>
stad</w>
legislat
parked</w>
priyan
silva</w>
krist
sthe
funky</w>
iga</w>
settlement</w>
phs</w>
tmrw</w>
stressed</w>
hunt
hockey
treasures</w>
chambers</w>
olu
hut</w>
marley</w>
texture</w>
wilderness</w>
mming</w>
potentially</w>
omaha</w>
judy</w>
toes</w>
spoiler</w>
distinguished</w>
felix</w>
ahu</w>
recommendations</w>
zombies</w>
hitler</w>
triple
collapse</w>
motivated</w>
ultimat
ggling</w>
soy
cigar</w>
foren
vineyard</w>
glitter</w>
findings</w>
colonial</w>
hunter
erik</w>
dens</w>
beetle</w>
lotte
subtle</w>
smatter</w>
trusted</w>
experimental</w>
naments</w>
ðŁĺĨ
region
acquisition</w>
breeding</w>
quarterback</w>
amreading</w>
ootd</w>
rude</w>
initiatives</w>
stout</w>
hyung</w>
outcome</w>
alfred</w>
mics</w>
expertise</w>
bacteria</w>
penguins</w>
jumper</w>
valencia</w>
bark</w>
ingday</w>
sellers</w>
contracts</w>
houston
commissioned</w>
adaptation</w>
swansea</w>
santiago</w>
commonwealth</w>
judging</w>
submission</w>
scorer</w>
tommy
Ã±o</w>
exquis
filing</w>
explanation</w>
allison</w>
wembley</w>
ridge
chevy</w>
santos</w>
ownership</w>
cognitive</w>
favourites</w>
shed
philanthro
deleted</w>
godd
snor
guidelines</w>
ffing</w>
jeep
clips</w>
swamp</w>
anor</w>
guild</w>
bolton</w>
springfield</w>
municipal</w>
goalkeeper</w>
yeon</w>
ðŁĺįðŁĺįðŁĺįðŁĺį
ãħĭãħĭ
waterfront</w>
grave
contemporary
arity</w>
ÃŃa</w>
sleeps</w>
syrup</w>
alam
pire
coyo
motogp</w>
tyson</w>
kejri
circul
singly</w>
crunch</w>
complicated</w>
nostalgia</w>
kop
move
kale</w>
macro</w>
midwest</w>
hans</w>
tribal</w>
nude</w>
à¯į</w>
beyonce</w>
congratulate</w>
cater
league
ðŁĻĬ</w>
ladder</w>
crashed</w>
technic
karaoke</w>
harassment</w>
rots</w>
experiencing</w>
kristen</w>
ðŁĩ³
ðŁ¤Ĺ
reflections</w>
guinness</w>
illustrator</w>
ðŁĻıðŁı»</w>
center
narrow</w>
commons</w>
regulations</w>
ÙĨ
harm
croft</w>
cussion</w>
hongkong</w>
stical</w>
internship</w>
zoe</w>
chop</w>
hoods</w>
estimated</w>
batteries</w>
berkeley</w>
smoothie</w>
shaun</w>
cros
~~</w>
campe
hump
bg
prototype</w>
click
shawn
reviewed</w>
templ
pf
jedi</w>
blogs</w>
raymond</w>
asth
bah</w>
avail</w>
scotch</w>
leafs</w>
nikki</w>
tok
hollow</w>
urges</w>
oft</w>
unlike</w>
latin
ue
catering</w>
mili
alternati
maver
Ð¸
agle</w>
preorder</w>
lux</w>
cucu
ðŁĳıðŁĳı</w>
tart
âĿ¤âĿ¤âĿ¤</w>
arabic</w>
rapidly</w>
arrang
allen
traveltuesday</w>
paws</w>
flows</w>
stability</w>
fluid</w>
capp
canberra</w>
uuuu
spani
demonstration</w>
mla</w>
placement</w>
mw
presidents</w>
awesom
beverly</w>
anist</w>
neal</w>
fathersday</w>
referendum</w>
lahore</w>
oaks</w>
debbie</w>
halfway</w>
ghosts</w>
debor
matthews</w>
fiat</w>
tfw</w>
presen
robi</w>
ded
brock</w>
laughed</w>
amounts</w>
bamboo</w>
kindergarten</w>
eaten</w>
mtvhottest</w>
breakout</w>
usic</w>
fraser</w>
legislative</w>
pang
module</w>
sammy</w>
gover</w>
earns</w>
expedition</w>
garh</w>
concepts</w>
charlie
lava</w>
bachelor</w>
veggies</w>
determine</w>
ellie</w>
unlocked</w>
fruit
dalla
coupe</w>
washington
deposit</w>
ivory</w>
paula</w>
chicag
gucci</w>
ðŁİĥ</w>
cultiv
pierce</w>
lifted</w>
stumb
recover</w>
muscles</w>
conducting</w>
cbs
mclaren</w>
sophia</w>
cellu
oceans</w>
uploaded</w>
gameplay</w>
maldives</w>
kimber
avoi
racer</w>
caine</w>
cavs</w>
hana</w>
liga</w>
raven</w>
intervention</w>
inauguration</w>
ooh</w>
attraction</w>
merchandise</w>
tunein</w>
liking</w>
juniors</w>
intended</w>
attacking</w>
aquarium</w>
iwd</w>
components</w>
suring</w>
centu
yogurt</w>
ðŁıĥ
showroom</w>
optical</w>
tyour
judge
yield</w>
anto
plc</w>
transparency</w>
recycled</w>
chief
arom
ambassadors</w>
planet
âĿĦï¸ı
omed</w>
vanessa</w>
court
margar
haley</w>
vr
regina</w>
pdates</w>
hispan
livestream</w>
âģ£</w>
yahoo</w>
galla
secured</w>
wir
beneath</w>
offl</w>
nil
amb</w>
yeg
outlet</w>
ute
peep</w>
lindsay</w>
bentley</w>
...!</w>
heel</w>
trilogy</w>
vos</w>
tyre</w>
therefore</w>
toronto
abi
simpli
jae
extensive</w>
elephants</w>
sor</w>
orientation</w>
impeach
replay</w>
constructed</w>
peterson</w>
pais
ported</w>
customs</w>
collap
adu
highlands</w>
salem</w>
shelby</w>
kovic</w>
strain</w>
rosie</w>
senators</w>
snaps</w>
bobb
suzuki</w>
blades</w>
kp</w>
lolo
generate</w>
sight
mae
structural</w>
predict</w>
jumped</w>
ahmad</w>
sung
justice
glam</w>
volvo</w>
jubilee</w>
detention</w>
losses</w>
puri
everytime</w>
Ð°
rao</w>
edge
limer
resemb
harold</w>
retri
sacrific
surprises</w>
amc</w>
srilanka</w>
barbie</w>
mens
finn</w>
ags</w>
ukrainian</w>
embrac
îĲ
flavors</w>
homer</w>
laure
outh
priced</w>
verde</w>
firm
ahs</w>
cub
trey</w>
paranor
profit
indv
whoa</w>
harsh</w>
alot</w>
critics</w>
hubby</w>
figur
gira
castro</w>
chanel</w>
input</w>
originals</w>
tenant</w>
yyyy</w>
turers</w>
lincoln
coon</w>
learn
chou
acare</w>
oles</w>
diner</w>
hyp
bizarre</w>
mcr</w>
letsgo
decorating</w>
ðŁĮİ</w>
alison</w>
arvin
fd
rehab</w>
mccarthy</w>
lottery</w>
dah
minneapolis</w>
eligible</w>
diagnosed</w>
emerald</w>
destinations</w>
sans</w>
ory
blazers</w>
nv</w>
bail</w>
digitalart</w>
noc
malta</w>
solar
pipes</w>
allegations</w>
nock</w>
pope
brid
premier
nx</w>
presentations</w>
efa</w>
bows</w>
valve</w>
opponent</w>
Įë
visual
ingle</w>
categor
eter</w>
pois
dani</w>
attract</w>
neutral</w>
thene
crashes</w>
freddie</w>
utili
cst</w>
awakening</w>
sloven
qualify</w>
proof
fairy
lev
freight</w>
enjoys</w>
cupcake</w>
flavour</w>
âķ
protective</w>
ðŁĳıðŁı»</w>
isu
admir
hmmm</w>
continuous</w>
aires</w>
raptors</w>
showcasing</w>
yuk
paste</w>
follower</w>
instructions</w>
spru
@__</w>
theo
debuts</w>
vette</w>
stow</w>
esof
ached</w>
sultan</w>
sandwich
somalia</w>
franco</w>
carne
fluffy</w>
alpine</w>
jasmine</w>
heated</w>
violin</w>
pless</w>
divorce</w>
performer</w>
phies</w>
portsm
dara</w>
kirby</w>
lop</w>
chilli</w>
forth
skype</w>
ðŁĩ®ðŁĩ¹</w>
celebrities</w>
edy
vee</w>
poison</w>
eyel
grabs</w>
ssic</w>
uno</w>
western
railroad</w>
amer
numerous</w>
sv</w>
fow
fist</w>
âĢĭ
requests</w>
martial</w>
emmy</w>
acceptance</w>
laura
à¸´</w>
erup
hyundai</w>
outlander</w>
utt
wrestle
espresso</w>
demanding</w>
gdp</w>
geography</w>
saskat
troll</w>
confeder
sues</w>
sem</w>
bets</w>
tful</w>
tosh</w>
teaches</w>
coloured</w>
galway</w>
macy</w>
disorders</w>
bbcra
atem
fender</w>
litter</w>
esh
providers</w>
renovation</w>
nominate</w>
psg</w>
nominations</w>
jenna</w>
sharp
someday</w>
zur
brains</w>
cheshire</w>
prey</w>
hugo</w>
Â¿</w>
token</w>
rv
carr</w>
tactical</w>
zelda</w>
kayla</w>
fernando</w>
photographers</w>
jour</w>
umbrella</w>
woody</w>
congressman</w>
dump</w>
levy</w>
juan
dazz
signals</w>
lain</w>
anu</w>
michel</w>
porch</w>
alden
siblings</w>
yale</w>
peel</w>
swick</w>
ggin</w>
llc</w>
kale
scon
ild</w>
patreon</w>
reel</w>
quin</w>
witt</w>
marty</w>
moody</w>
toni</w>
dery</w>
gators</w>
specifically</w>
ddin</w>
lyon</w>
trick
meadows</w>
pj</w>
borgh
vik</w>
tur</w>
bronx</w>
puff</w>
lantern</w>
ðŁ¤¦
gently</w>
bestie</w>
fact
refused</w>
fasci
mpy</w>
ðŁĶµ</w>
crossover</w>
meadow</w>
indianapolis</w>
ducation</w>
sley
loom</w>
mixer</w>
newmusic</w>
filmmaker</w>
prosperity</w>
lim</w>
weekend
creamy</w>
neutr
luther</w>
hv
northern
two
hra</w>
catches</w>
appearances</w>
habit</w>
kittens</w>
nv
illac</w>
infan
regardless</w>
lizard</w>
dunk</w>
curtain</w>
acom
intu
vez</w>
emin
flats</w>
calendars</w>
empower</w>
ruined</w>
hungary</w>
vid
wex
ulum</w>
aberdeen</w>
osa</w>
kt
massi
seemed</w>
sden</w>
'?</w>
telephone</w>
defi
inspires</w>
meow</w>
zones</w>
blind
ply
tucson</w>
adventure
ged
oyster</w>
ðŁĳıðŁĳıðŁĳı</w>
output</w>
ttt</w>
metallic</w>
smash
ucla</w>
scots</w>
perfect
lucy
regularly</w>
spic
relative</w>
athers</w>
mise</w>
battling</w>
decides</w>
mata</w>
occupied</w>
randomly</w>
catsoftwitter</w>
gian
bally
alties</w>
allies</w>
immen
syrac
ðŁĴľðŁĴľ
llan
aur</w>
kut
lamar</w>
affects</w>
nra</w>
starwar
ðŁ¤ĺ</w>
scram
enchan
process
luxurious</w>
array</w>
sherlock</w>
compati
dorf</w>
stress
msu</w>
swith
sala</w>
sofinstagram</w>
foil</w>
understood</w>
quay</w>
rp
cade</w>
jaw</w>
enab
encoun
ðŁİī:</w>
dock
saturn</w>
mull
layout</w>
rarely</w>
happily</w>
fixture</w>
orph
overlooking</w>
herbs</w>
mitt
pillar</w>
nolan</w>
petty</w>
stry
ui
muk
ores</w>
overs</w>
áµ
recreation</w>
wesley</w>
rit</w>
kejriwal</w>
stocking</w>
gv</w>
subscribers</w>
moose</w>
mae</w>
bert
oppre
assignment</w>
uro
highlighting</w>
calvin</w>
weigh</w>
cambodia</w>
avon</w>
kem</w>
disabilities</w>
ready
chargers</w>
pads</w>
izing</w>
illian</w>
truste
colleges</w>
associates</w>
albany</w>
milton</w>
cron
bur</w>
hardly</w>
sights</w>
antiques</w>
echo
surprisingly</w>
haiti</w>
capt</w>
php</w>
opio
inequality</w>
equal
keny
schmid
autographs</w>
rent
quer
citrus</w>
challenged</w>
tec
epide
fest
zhou</w>
lime
citizenship</w>
crystal
convinced</w>
messenger</w>
copenhagen</w>
âĿĹï¸ı</w>
warran
developments</w>
ï¸ıâĥ£
forex</w>
hiro
sneakers</w>
xide</w>
viva</w>
stereo</w>
batting</w>
ssel
host
bengal
criticism</w>
qc</w>
crun
attempted</w>
rye</w>
determination</w>
creations</w>
dread
labels</w>
posse
ancer</w>
johan
sister
partnerships</w>
lesbian</w>
kst</w>
guarantee</w>
baro
fixing</w>
mason
mous</w>
chemicals</w>
tless</w>
biodiversity</w>
paro
bharat</w>
acol
refuge</w>
ente
titi
dyssey</w>
responds</w>
lefto
iner
sevel
rahul</w>
oline</w>
frankfur
choreo
enjoyable</w>
cto</w>
struggles</w>
woodland</w>
heavyweight</w>
gens</w>
recep
accred
ðŁĺ¡</w>
transformed</w>
listen
atop</w>
nk</w>
surge</w>
bere
governor
prisoners</w>
claude</w>
till
mulator</w>
emotion</w>
waterloo</w>
start
ðŁĩº</w>
cleaned</w>
grandmother</w>
fearless</w>
african
astronomy</w>
ðŁıģ</w>
à¸Ļ
theworld</w>
suitable</w>
anthony
kand
tten</w>
meaningful</w>
disclo
jacobs</w>
Ã¸
tomlinson</w>
ghetti</w>
typho
substan
asco</w>
tek
nagar</w>
mud
amon
vaccine</w>
fty</w>
flesh</w>
noel</w>
inflation</w>
portugue
glamour</w>
tram</w>
vre</w>
tequ
roundup</w>
wyn</w>
rejected</w>
mosaic</w>
sighting</w>
calf</w>
ota
composition</w>
gopro</w>
gonzale
eed</w>
bard</w>
tue</w>
effectively</w>
ween
alto</w>
ribs</w>
relate</w>
thirsty</w>
furious</w>
dim</w>
chard</w>
perfume</w>
sny
churchill</w>
kof
masterclass</w>
wave
ðŁĶµ
erin
owns</w>
tobe
skilled</w>
tem</w>
gof
eni</w>
tori</w>
crazy
lick</w>
resistant</w>
icial
agar</w>
!:</w>
gali
delaware</w>
blitz</w>
kohli</w>
puck</w>
availability</w>
himalay
influential</w>
crochet</w>
victori
reading
hobby</w>
viet
jas</w>
engra
skul
ðŁĩ²ðŁĩ
educate</w>
techno</w>
districts</w>
blues
sett</w>
seventh</w>
learns</w>
eeee</w>
apocalypse</w>
hangout</w>
cruel</w>
mutu
bruh</w>
helen
sheer</w>
ction
klein</w>
texans</w>
cereal</w>
shine
nered</w>
gras</w>
ambro
fella</w>
hindu
matthew
lima</w>
miranda</w>
jewel</w>
soho</w>
eurovision</w>
neighbours</w>
chandler</w>
besides</w>
ðŁ¥°</w>
astros</w>
thumbs</w>
renault</w>
rave</w>
hired</w>
ðŁĸ¤
itary</w>
zor
blazer</w>
kine
eau</w>
katy
dccomics</w>
pec</w>
rodgers</w>
waterproof</w>
killers</w>
superint
preserv
asso</w>
brewers</w>
promotional</w>
scam
villages</w>
sketches</w>
juicy</w>
forlife</w>
audit</w>
solo
fundamental</w>
lene</w>
philippine</w>
tend
conservatives</w>
sponsorship</w>
ddle
aine</w>
htc</w>
osi</w>
hulk</w>
waf
à¸Ļ</w>
evaluation</w>
antine</w>
slee
robertson</w>
roosevel
agi</w>
sophistic
employers</w>
bubbles</w>
kowski</w>
interaction</w>
shu</w>
boule
ican
jare
hank</w>
legitim
knicks</w>
karma</w>
receiver</w>
perks</w>
uh
stair</w>
suni
laboratory</w>
graves</w>
vocals</w>
oot</w>
cture</w>
thrive</w>
tico</w>
ãĥ³
bw
cartoons</w>
mcdonalds</w>
draw
yung</w>
pler</w>
lid</w>
ethical</w>
groove</w>
enta</w>
internationalwomensday</w>
patron</w>
worries</w>
ðŁİħ
ðŁĳĭ</w>
katherine</w>
diaz</w>
tori
bachchan</w>
trust
mineral</w>
icom
builders</w>
born
coloring</w>
latte</w>
case
revolution
trader</w>
oxid
chipot
instantly</w>
southern
sehun</w>
prob
hernandez</w>
lisbon</w>
huawe
pong</w>
mea</w>
rooney</w>
wheelchair</w>
keen
bett
corin
regulatory</w>
displac
karen
schem
sunsets</w>
whales</w>
reminis
hep
hide
marcel
pandora</w>
doyle</w>
thfc</w>
otto</w>
nokia</w>
transgender</w>
kov
hawaiian</w>
shave</w>
sovere
excer
nicki</w>
pug</w>
stor</w>
roth
weet</w>
legal
dignity</w>
pow</w>
homage</w>
ðŁĩ³ðŁĩ
sre
canon
lax
woah</w>
quartz</w>
Ã±a</w>
greeting</w>
flickr</w>
nairobi</w>
advocates</w>
anc</w>
vii</w>
eugene</w>
thra
cre</w>
elan
pension</w>
thletics</w>
toni
reagan</w>
xv</w>
store
bench
harlem</w>
toddler</w>
sentenced</w>
âĻ¥ï¸ı
globally</w>
cheaper</w>
uf
mam</w>
nico</w>
iku</w>
thou</w>
nist</w>
dami
thala</w>
rhodes</w>
sale
bowls</w>
âĪ
lasvegas</w>
sanctions</w>
admire</w>
matched</w>
unable</w>
traveler</w>
eleven</w>
strawberries</w>
âĢĶâĢĶâĢĶâĢĶ
studio
jacques</w>
ims</w>
valued</w>
sno</w>
cheesecake</w>
nxt</w>
eos</w>
sx</w>
fx
tonic</w>
hatch</w>
chicks</w>
grads</w>
handic
rory</w>
asp
ripped</w>
dentist</w>
nen
lufc</w>
âľĬ</w>
dige
hopkins</w>
sherman</w>
fda</w>
forall</w>
ashley
strand</w>
hy</w>
liquor</w>
buffet</w>
essence</w>
pharma</w>
suriya</w>
ðŁĴĻðŁĴĻ
festivals</w>
zan</w>
refresh
purple
uniforms</w>
kenneth</w>
=)</w>
asan</w>
helsin
transformers</w>
kali
personalized</w>
chalk</w>
bobby
âĮ
themes</w>
departure</w>
print
illustrations</w>
quiet
agrees</w>
griff
Ø³
miti
together
convenience</w>
abar
carlo
turtles</w>
infosec</w>
somewhat</w>
arlington</w>
scholarships</w>
emirates</w>
mums</w>
stella</w>
autonom
feather</w>
gore</w>
nominees</w>
fragrance</w>
ÑĤ
wong</w>
theastern</w>
gre</w>
zilla</w>
isi</w>
bumper</w>
goo</w>
dozens</w>
abduc
âļªï¸ı</w>
oils</w>
donors</w>
silicon</w>
ipod</w>
fortnite</w>
ðŁĴ¨</w>
toro</w>
sparkling</w>
consciousness</w>
pala</w>
num
mounted</w>
ffins</w>
thieves</w>
teammate</w>
prab
omer</w>
tapes</w>
bod
mitsu
stew</w>
ere
pbs</w>
tusc
lowe</w>
rade</w>
parliamentary</w>
hm
edgar</w>
ðŁĳĩðŁĳĩ
toa
agh
honi</w>
slate</w>
geek
apt</w>
hardt</w>
tap
horizon
growth
makeover</w>
hil</w>
paperback</w>
idan</w>
rehabil
giu
possibilities</w>
lettu
franco
boss
acher</w>
doesnt</w>
moe</w>
taker</w>
hussain</w>
mlk</w>
dil</w>
thia</w>
hama</w>
realised</w>
ravens</w>
curriculum</w>
mith</w>
knight
tedx
rv</w>
isaiah</w>
cumbria</w>
birthdays</w>
fing</w>
prez</w>
mubarak</w>
exquisite</w>
clearance</w>
yen</w>
pari
evo
Ãº
modified</w>
applying</w>
implement</w>
discovering</w>
chapman</w>
indiegame</w>
disk</w>
crowdfunding</w>
machin
livel
styled</w>
âĿĮ</w>
making
rehearsals</w>
nutriti
subscription</w>
andro</w>
creators</w>
carries</w>
kylie</w>
camden</w>
apprentice</w>
taxpay
cca</w>
tuesdaythoughts</w>
pissed</w>
erman</w>
detec
freedom
meri
..!</w>
psalm</w>
sunlight</w>
perspec
beings</w>
bookstore</w>
rockstar</w>
functions</w>
pence</w>
faves</w>
zn</w>
obamacare</w>
spill</w>
coventry</w>
pigeon</w>
pivo
bait</w>
kolkata</w>
aval
donor</w>
wah</w>
privileg
traditions</w>
rajasthan</w>
teness</w>
portuguese</w>
ynes</w>
tackles</w>
defic
torn</w>
polling</w>
thorne</w>
ina
benedict</w>
barry
calories</w>
verdict</w>
savethe
norton</w>
office
mainstream</w>
improves</w>
fron</w>
responding</w>
realtor</w>
scottish
declar
rl
shiv
supplier</w>
resting</w>
sweets</w>
qui</w>
.âĢ¦</w>
whitney</w>
startup
thankyou
teacher
halls</w>
have
handmade
proving</w>
quartet</w>
rochester</w>
lian</w>
virtual
mendes</w>
oficial</w>
midlands</w>
xbox
measuring</w>
ovo</w>
accommodation</w>
brides</w>
collegiate</w>
intellectual</w>
incar
niag
ðŁį·</w>
sfw</w>
cocoa</w>
coats</w>
civilians</w>
presidency</w>
matrix</w>
sweetheart</w>
triathlon</w>
wagner</w>
radic
planner</w>
theo</w>
execution</w>
kum
thewalkingdead</w>
scar</w>
rotation</w>
blogging</w>
bomb
reson
bbles</w>
stare</w>
assisted</w>
edo</w>
branded</w>
warnings</w>
thorpe</w>
acknowle
satisfied</w>
shores</w>
rid
dora</w>
physically</w>
bigh
approves</w>
hah
rical</w>
versatile</w>
pretend</w>
lum
abhi
yee
spit
ãĢĮ</w>
djs</w>
ashtra</w>
jt</w>
venues</w>
grammys</w>
cyclo
tracker</w>
overwatch</w>
replica</w>
elyn</w>
nrl</w>
lindsey</w>
homo
balloons</w>
kitchen
sis
amos</w>
endeav
ðŁĴ»</w>
arec
thug</w>
hooked</w>
hrc</w>
newyork
burgh
americas</w>
patricia</w>
ugu</w>
apathy</w>
hast
psychi
cork
petrol</w>
ðŁİ¬</w>
aku
popping</w>
psychological</w>
aux
gma</w>
cadillac</w>
waste
authent
bristol
name
queer</w>
tober
jerry
comin</w>
chant
privileged</w>
opar
loser</w>
text
marker</w>
stries</w>
equally</w>
aki
christmas
gareth</w>
blew</w>
emma
imagin
seals</w>
cheat</w>
conditioning</w>
jana</w>
rens</w>
daries</w>
oasis</w>
discounts</w>
council
ika</w>
shirley</w>
voucher</w>
alps</w>
wx
qr</w>
drift</w>
attempting</w>
utc</w>
Øª
gonzalez</w>
mf
joker</w>
parallel</w>
pare
aspects</w>
procedu
np
ama
raleigh</w>
brighten</w>
guire</w>
radiation</w>
crescent</w>
hob
ille
strand
vore</w>
nard</w>
chest
diwali</w>
avatar</w>
alder
dling</w>
pathetic</w>
ðŁĴĺ
spirit
jorge</w>
filmmaking</w>
ðŁĻıðŁĻı
challenger</w>
bj</w>
downtown
html</w>
adequ
twisted</w>
inely</w>
('</w>
wraps</w>
operational</w>
yne</w>
nus</w>
magnet</w>
marketplace</w>
healthier</w>
snapshot</w>
damon</w>
interven
federer</w>
owls</w>
biscuits</w>
jp
rodeo</w>
blueberry</w>
lection</w>
frontier</w>
summers</w>
reyes</w>
pedestrian</w>
gol</w>
caffe
refurbi
boulder</w>
meghan</w>
specialty</w>
lass</w>
ei</w>
suspects</w>
approx</w>
rrr</w>
rath
stim
crushed</w>
hed
whun
loaf</w>
crore</w>
rivera</w>
genetics</w>
sock</w>
wasted</w>
nypd</w>
answering</w>
dove</w>
bella
olin</w>
dun</w>
fiji</w>
pretty
sparkle</w>
yun</w>
jd
europa</w>
lifts</w>
amber
mur</w>
tek</w>
boyd</w>
royalty</w>
indo</w>
rib</w>
gotham</w>
tiest</w>
installing</w>
kemp
thephoto
cosmic</w>
)))</w>
wholesale</w>
loyment</w>
easy
suing</w>
settled</w>
afp</w>
prover
supportive</w>
rees</w>
neath</w>
deliber
cÃ©</w>
welcome
picoftheday</w>
newborn</w>
patty</w>
suns</w>
siest</w>
flint</w>
differently</w>
spoilers</w>
trooper</w>
gins</w>
cory</w>
lookout</w>
equipped</w>
tape
toby</w>
researcher</w>
ush</w>
keyes</w>
alma</w>
induction</w>
kw</w>
khar
slick</w>
bride
eur
craving</w>
bookings</w>
ches
trunk</w>
vernon</w>
spher
crystals</w>
relatively</w>
pompe
unions</w>
valley
para
want
okc</w>
deaf</w>
sergio</w>
lennon</w>
shay</w>
cra</w>
vat</w>
hee
twe
liquid
poly</w>
ðŁİģ
bent</w>
bearing</w>
motorsport</w>
barbe
testi
hani</w>
financing</w>
astronaut</w>
watercolour</w>
rish
comiccon</w>
gart
wrong
bern</w>
itan</w>
stepped</w>
filters</w>
clow
mex</w>
demons</w>
allo</w>
expanded</w>
command
eters</w>
goats</w>
siri</w>
yr
pottery</w>
marion</w>
ile
elan</w>
santo</w>
persona</w>
duke
homeless
lighted</w>
wheeler</w>
changer</w>
cabbage</w>
surreal</w>
hamburg</w>
smashed</w>
stran
knot</w>
iart
obi</w>
bedro
dial
thick
bingo</w>
fus</w>
vacuum</w>
conve
ative
accuracy</w>
account
refer
riz
spiderman</w>
bana</w>
rite</w>
ub
abs
medical
link
siem
>>>></w>
betra
glowing</w>
reactions</w>
puppet</w>
spaghetti</w>
angs</w>
remedi
prayfor
royce</w>
charlotte
£ï¸ı</w>
ghet
affecting</w>
rode</w>
socialist</w>
moses</w>
azi</w>
oit
reporters</w>
cdt</w>
aping</w>
snat
minimal</w>
waist</w>
siege</w>
>>>>
rig
schmidt</w>
hare</w>
eca</w>
thorn</w>
hemp</w>
esthe
clyde</w>
tha
donut</w>
mohamed</w>
lingerie</w>
legg
carpenter</w>
performers</w>
dea</w>
imagined</w>
curse</w>
lash</w>
ctr</w>
agua</w>
roar</w>
gri</w>
role
jfk</w>
resurrec
roosevelt</w>
marilyn</w>
smalle
willis</w>
waited</w>
charities</w>
theres</w>
lik</w>
original
cari
cough</w>
cruci
lagun
contrast</w>
kou
armour</w>
removing</w>
tent
mazda</w>
brighter</w>
thief</w>
corner
tequila</w>
buzzing</w>
albi
pam</w>
azure</w>
discoun
pixelart</w>
possibility</w>
hamont</w>
trades</w>
buda
hive</w>
versy</w>
finch</w>
transpa
emi</w>
terrifying</w>
inqui
gba</w>
substitu
collecti
placing</w>
cindy</w>
kann
patho
diamond
mourinho</w>
guinea</w>
anthropo
airs</w>
pumps</w>
ìļ
paso</w>
curling</w>
anita</w>
residency</w>
newh
joon</w>
cigarette</w>
queue</w>
extrac
games
splen
express
publicly</w>
bonnie</w>
tribune</w>
baek
reasonable</w>
cor</w>
timothy</w>
sheeran</w>
Ä±
fdn</w>
sutton</w>
concentration</w>
caravan</w>
xavier</w>
alger
cylin
frederick</w>
nerve</w>
peak
lettuce</w>
jail
pregame</w>
kavan
upgraded</w>
ecology</w>
squadron</w>
grapes</w>
goog
pastry</w>
ðŁĹ£</w>
ãĥ¼ãĥ
milano</w>
awaz</w>
presenter</w>
ðŁĮ¿</w>
herd</w>
kings
template</w>
flour</w>
hv</w>
kley</w>
iya</w>
spec</w>
ater
frankfurt</w>
coch
texting</w>
deli</w>
communist</w>
regiment</w>
eleanor</w>
anticipated</w>
ðŁĳĮðŁı»</w>
thephotohour</w>
rano</w>
surviving</w>
simulation</w>
dawson</w>
arin</w>
aqua</w>
mor</w>
âĢ¦.</w>
cino</w>
iraqi</w>
shaz
dundee</w>
wes
drau
hannah
snews</w>
occupation</w>
steen</w>
xm</w>
angles</w>
settings</w>
guru
knox
orca</w>
shaping</w>
went
drilling</w>
zzie</w>
bri</w>
kissing</w>
find
maine
âŃĲï¸ıâŃĲï¸ı
ðŁĮį</w>
larry
busted</w>
tavern</w>
actively</w>
-"</w>
replacing</w>
nod</w>
unlock</w>
."
âŀ¤</w>
affiliate</w>
tow</w>
ln</w>
happynewyear</w>
dif
jm</w>
greenwich</w>
controversy</w>
dawg</w>
condol
savannah</w>
compensation</w>
touchdown</w>
teo</w>
ambitious</w>
embroi
convicted</w>
iartg</w>
barack
trance</w>
testimony</w>
audition</w>
thumb</w>
myths</w>
bex
quez</w>
orchid</w>
deny</w>
entitled</w>
hood
grant
inbox</w>
bluejays</w>
rilla</w>
smallest</w>
burden</w>
infamous</w>
divided</w>
boundaries</w>
tter
elt</w>
wyoming</w>
beverage</w>
mesm
onews</w>
buddhist</w>
yana</w>
assad</w>
isms</w>
barrett</w>
predicted</w>
backto
twit</w>
ethere
captains</w>
escaped</w>
ayo</w>
lamborgh
gardner</w>
laps</w>
kal</w>
advertisement</w>
insects</w>
napo
amen
acy
rand</w>
gk</w>
teh
kathle
tridge</w>
pancake</w>
atro
pyramid</w>
bula</w>
paralym
gauge</w>
encies</w>
tomy</w>
biscuit</w>
butcher</w>
qualifier</w>
county
kei
pools</w>
darker</w>
shoulders</w>
ðŁĩºðŁĩ¸ðŁĩºðŁĩ¸
spre
("</w>
writers
gm
ðŁİĵ</w>
knit
huff
mtb</w>
phillies</w>
ost</w>
denis</w>
gart</w>
licensed</w>
interface</w>
excel</w>
dwell</w>
fromthe
cofficial</w>
azzi</w>
appearing</w>
forest
nana</w>
keith
manufacturers</w>
beckham</w>
)?</w>
ese
colony</w>
delicate</w>
utter
mcin
transplant</w>
preferred</w>
pard</w>
arie</w>
hub
pods</w>
perspectives</w>
pict</w>
delu
apper</w>
bethan
pmo
criminals</w>
feminism</w>
shack</w>
circumstances</w>
fellas</w>
protesting</w>
wax
suggested</w>
tator</w>
drew
omni
fake
kathy</w>
reb</w>
deline</w>
berni
misty</w>
ðŁĳ©
erable</w>
breakthrough</w>
menswear</w>
millennials</w>
chanyeol</w>
laz
insert</w>
replies</w>
phrase</w>
nx
iheartawards</w>
audrey</w>
granite</w>
racec
orie</w>
terra</w>
innovations</w>
brittany</w>
ateral</w>
pear</w>
biological</w>
shments</w>
institution</w>
msn
frequency</w>
dman</w>
neglec
tf
stefan</w>
foxnews</w>
typo
comms</w>
sequence</w>
carmen</w>
whites</w>
economist</w>
exeter</w>
seum</w>
resorts</w>
casually</w>
bunde
divide</w>
Ø¹
gag</w>
creed</w>
retire</w>
caucus</w>
rapids</w>
wrestlemania</w>
tulsa</w>
sunderland</w>
fundament
odi</w>
yamaha</w>
vary</w>
intrigu
else
beacon</w>
angie</w>
traded</w>
transm
gents</w>
knitting</w>
galac
ðĿĹ
uto
seaside</w>
holt</w>
rers</w>
fargo</w>
trainers</w>
monsoon</w>
bale</w>
sought</w>
maddie</w>
hw</w>
coli
fran</w>
favs</w>
ðŁĴĶ
intent</w>
rally
sbs</w>
lemonade</w>
barackobama</w>
bread
sticky</w>
explosive</w>
chelten
tj
assoc</w>
ramen</w>
homies</w>
vlog</w>
mister</w>
lord
âĢįâĻĢï¸ı
alyssa</w>
sketchbook</w>
rumble</w>
catch
migrant</w>
discipline</w>
unlikely</w>
chronicles</w>
flora</w>
slams</w>
amid
sboro</w>
coop</w>
jumps</w>
tranqu
melis
sofia</w>
enri
gabe</w>
syri
nicolas</w>
chai</w>
wv
becky</w>
footy</w>
tao</w>
suppose</w>
ðŁĺįðŁĺįðŁĺįðŁĺį</w>
plush</w>
rish</w>
ðŁ¤ĵ</w>
kha</w>
saturdays</w>
accent</w>
hec
limit
carlton</w>
wired</w>
taylorswift</w>
ðŁĺĳ</w>
sql</w>
harro
recipients</w>
gat</w>
gop
thof
amazed</w>
ghan
ðŁıĨðŁıĨ
porto</w>
clare
distant</w>
nac</w>
ohio
ðŁĻıðŁı¼</w>
mtn</w>
antibio
dinosa
mesa</w>
partial</w>
bv
learnt</w>
lovato</w>
question
extract</w>
gossip</w>
gibb
niagara</w>
ðŁĳ¨
displayed</w>
sooner</w>
stevie</w>
nuggets</w>
mln</w>
brom
turb
giveaways</w>
stupi
blink</w>
cili
convenient</w>
moh
vive
fric
cause
chamber
cules</w>
nearest</w>
isse</w>
smallbiz</w>
tj</w>
canadians</w>
smarter</w>
brasil</w>
rare
quette</w>
wha
candle
atomic</w>
ðŁĳįðŁĳį</w>
warrior
relaxed</w>
strips</w>
neur
kka</w>
rfc</w>
jensen</w>
recovering</w>
responses</w>
salam
orthodox</w>
active
ellers</w>
nit</w>
âŃĲ</w>
metropolitan</w>
centuries</w>
vida</w>
grading</w>
transparent</w>
simple
dots</w>
superintendent</w>
elevator</w>
automated</w>
redskins</w>
imam</w>
summertime</w>
jonathan
gearing</w>
michelle
conflic
mice</w>
tote</w>
publish</w>
pax</w>
)-</w>
nailed</w>
á´
telescope</w>
serbia</w>
bab</w>
apeu
stically</w>
senti
rats</w>
isolated</w>
group
hatred</w>
paranormal</w>
stanley
alion</w>
safety
ls
à¤°</w>
nexus</w>
alexandra</w>
masks</w>
++</w>
tron
auk</w>
brotherhood</w>
browse</w>
mixes</w>
simone</w>
musk</w>
approve</w>
lola</w>
exp</w>
perth
futuri
unseen</w>
dm
chelse
scouting</w>
owe</w>
portsmouth</w>
kram
mize</w>
dispen
sup
dlc</w>
advert</w>
teresa</w>
isle
cycle
metall
shields</w>
mariners</w>
raz</w>
ingen</w>
fund
ango</w>
jones
oka</w>
madden</w>
broccoli</w>
dominic</w>
situations</w>
mero</w>
cricke
punishment</w>
db
shaking</w>
ðŁĺļ</w>
mq
arians</w>
leh
claw</w>
weds</w>
dure</w>
niel
jelly
gourmet</w>
traders</w>
levi</w>
wages</w>
knees</w>
wise
heavenly</w>
avid</w>
melody</w>
zack</w>
bananas</w>
apprentice
prop
funny
ode
respected</w>
megan
fewer</w>
drafted</w>
medit
grape
usarmy</w>
crusad
vocali
preparations</w>
nonsense</w>
usage</w>
thr</w>
roth</w>
wizards</w>
inside
promotions</w>
mona</w>
redsox</w>
sig</w>
elegance</w>
chia</w>
universal
ãĢį</w>
raja</w>
unga</w>
pollin
filipino</w>
aka
tsun
ikon</w>
biking</w>
decorations</w>
zac</w>
cadets</w>
humour</w>
agm</w>
reppin</w>
vaccin
elove</w>
uw</w>
diabe
gallagher</w>
azer
dol</w>
awhile</w>
prominent</w>
welsh
tann
')</w>
bien
wag</w>
inal</w>
cwc</w>
wicket</w>
urst</w>
qanon</w>
xe</w>
outdoor
dunn</w>
starr</w>
cology</w>
ricky
uefa</w>
rebounds</w>
smusic</w>
infant</w>
ðŁĻĭ
sop</w>
umber
handing</w>
begin
sorting</w>
hash</w>
spati
rek</w>
budapest</w>
blackhawks</w>
delete</w>
rom</w>
candid</w>
authori
debris</w>
specul
intersection</w>
marriott</w>
imran</w>
ðŁĺģðŁĺģ</w>
cruises</w>
ramsey</w>
rafael</w>
awareness
vascular</w>
beyoncÃ©</w>
rug</w>
ðŁĺĮ
festiv
aram
sable</w>
basil
pill</w>
flooring</w>
unbeaten</w>
implications</w>
uf</w>
wound</w>
forge</w>
pointing</w>
pots</w>
popularity</w>
ðŁĳıðŁı»
manipul
slots</w>
debates</w>
absence</w>
vermont</w>
neverforget</w>
wrist
gloria</w>
rence
husk
melting</w>
ðŁİŁ
braces</w>
timely</w>
transforming</w>
amps</w>
mak</w>
poe</w>
ahan</w>
generally</w>
ndp</w>
aleppo</w>
unicef</w>
profs</w>
nord
mask
jacksonville</w>
vv
shells</w>
blooming</w>
operators</w>
charcoal</w>
neville</w>
magi
chip
sama</w>
iran
reforms</w>
accumul
rue</w>
æľ
websites</w>
gaon</w>
devastating</w>
stos</w>
glacier</w>
rapp
chipotle</w>
pra</w>
orous</w>
romney</w>
season
decorative</w>
cisco</w>
ditch</w>
complain</w>
llo</w>
assume</w>
ðŁĺĤðŁĺĤðŁĺĤðŁĺĤðŁĺĤ</w>
nels</w>
centric</w>
ftw</w>
carrots</w>
tata</w>
canter
perience</w>
liers</w>
demos</w>
blunt</w>
operate</w>
reservations</w>
leah</w>
substance</w>
dison</w>
ante
election
vue</w>
square
nonprofit</w>
caa</w>
fsu</w>
yam</w>
ãĤ¤
vladi
completes</w>
mari</w>
phillip</w>
neill</w>
eras
kait
mendo
maharashtra</w>
gp
dane</w>
providence</w>
therapeu
juvenile</w>
memo</w>
incorpor
aaaa</w>
seventeen</w>
teenager</w>
Ã£
orns</w>
wide
cuteness</w>
twd</w>
ffles</w>
bara</w>
comedy
overtime</w>
yaz
baron</w>
unemployment</w>
ðŁĳĭ
exterior</w>
dense</w>
centres</w>
matchup</w>
historymonth</w>
artificial
quit
esk
warn</w>
critic</w>
jaf
ðŁĵ²</w>
informative</w>
fuels</w>
recycle</w>
naming</w>
stripe</w>
solic
molecular</w>
deepi
convo</w>
ssel</w>
nae</w>
descent</w>
tiz</w>
accountability</w>
terry
rito</w>
slay</w>
emo</w>
demol
sensation</w>
cov
tore</w>
roundtable</w>
yol
excuses</w>
à¥į</w>
turquo
hhhh
podcasts</w>
celeb</w>
messi
lio</w>
mann
contributed</w>
uz
generator</w>
elets</w>
veggie</w>
indul
ensuring</w>
detroit
punjab
transpor
instruction</w>
add
porcel
paneli
circles</w>
persist
clayton</w>
spn</w>
dogsoftwitter</w>
isnt</w>
spr</w>
retailers</w>
pw
hungar
elena</w>
monaster
guatem
jessie</w>
anz</w>
rashi
flee
carving</w>
faux</w>
lal</w>
henri
djo
dull</w>
sana</w>
lara</w>
globe
crimson</w>
compass</w>
pause</w>
nab</w>
lionel</w>
baths</w>
ufo</w>
inventory</w>
singh
satan</w>
ðŁĩ¸
cements</w>
inform</w>
generated</w>
biden</w>
avg</w>
tasks</w>
deer
sau</w>
jailed</w>
pastel</w>
scc</w>
nail
steele</w>
peris
lamborghini</w>
pursue</w>
margin
uch
bosch</w>
drain</w>
clara</w>
bom</w>
latino</w>
webster</w>
rosemary</w>
rha
soun
billionaire</w>
notch</w>
percentage</w>
conor</w>
'"</w>
homes
earthday</w>
hort</w>
biggest
disin
walton</w>
editors</w>
imma</w>
omar
equivalent</w>
pharmaceu
ahmed
cameo</w>
hanni
underrated</w>
gement</w>
microbi
voo
honorable</w>
obesity</w>
âļ¡ï¸ı
limerick</w>
involvement</w>
stagram</w>
boulevard</w>
burg
blackandwhite</w>
liberation</w>
five
interim</w>
smm</w>
rivalry</w>
capabilities</w>
statements</w>
thumb
ved
swans</w>
barber
eque
serena</w>
helm</w>
noodle</w>
sampling</w>
nawaz</w>
single
thunderstorms</w>
shon
inev
ë¯
topp
orchard</w>
bian
ðŁĺĶ
doorstep</w>
salvation</w>
marketing
rons</w>
clemson</w>
ravi</w>
intake</w>
standwith
sina</w>
haiku</w>
pley</w>
electoral</w>
philly
lays</w>
electric
capturing</w>
upp
ergy</w>
believing</w>
cultures</w>
esday</w>
invasive</w>
eded</w>
speech
endur
vietnam
boycott</w>
pede</w>
deliver
ðŁĴĸðŁĴĸ
merchant</w>
stir</w>
denies</w>
pockets</w>
oti
cuddle</w>
roland</w>
mmed</w>
dened</w>
learners</w>
hoop</w>
sourcing</w>
hacked</w>
dim
environments</w>
benson</w>
judicial</w>
worcester</w>
pearls</w>
governments</w>
arrivals</w>
corners</w>
tuning</w>
labour
ym</w>
ordering</w>
lewi
ife</w>
hygiene</w>
thoughtful</w>
indonesian</w>
campaigning</w>
principle</w>
assaul
rubb
atv</w>
willy</w>
entre</w>
ili</w>
phon
duties</w>
âĻ¥âĻ¥</w>
snakes</w>
loop
amar</w>
convertible</w>
bonding</w>
mentoring</w>
maxwell</w>
ethereum</w>
destroying</w>
axis</w>
cairo</w>
finnish</w>
shock
ðŁĺĲ</w>
caleb</w>
coma</w>
pedal</w>
core
continent</w>
elson</w>
tempo</w>
helsinki</w>
acp</w>
tackling</w>
stated</w>
bla</w>
doub
smashing</w>
aja</w>
cameron
disruption</w>
warmth</w>
beingsalmankhan</w>
bulletin</w>
ode</w>
syracuse</w>
aran</w>
mcgregor</w>
bulk</w>
anton</w>
confirmation</w>
spine</w>
imran
instruc
jacks</w>
chio</w>
palm
stre</w>
embarrassing</w>
unt
eliminate</w>
toss</w>
cise</w>
aws</w>
onists</w>
shinee</w>
jos</w>
hose</w>
lively</w>
opponents</w>
movements</w>
recognizing</w>
sandwiches</w>
shakes</w>
exercises</w>
seat
profession</w>
merrychristmas</w>
lugg
adoptdont
marvin</w>
byrne</w>
unle
het</w>
kuwait</w>
rahman</w>
aspect</w>
humbled</w>
genes</w>
fand
longtime</w>
);</w>
campu
angus</w>
ðŁĳįðŁı¼</w>
quran</w>
sleeves</w>
slic
¸ë
twelve</w>
youre</w>
ike</w>
gogh</w>
bst</w>
dictionary</w>
reflecting</w>
toon</w>
yarn</w>
embed
ðŁı´</w>
reserves</w>
flooded</w>
veriz
dusk</w>
establish</w>
proli
aud</w>
ritual</w>
orbit</w>
declaration</w>
recordings</w>
camo</w>
cassette</w>
goodluck</w>
cutter</w>
bop</w>
bho
cheating</w>
pacific
mares</w>
timer</w>
colt</w>
trous
tomorrow
hansen</w>
cie</w>
wang
bani</w>
circular</w>
acute</w>
farmer
coys</w>
pse
irving</w>
wj
hawkins</w>
bison</w>
urday</w>
cruising</w>
ote</w>
kath</w>
whistle</w>
yourselves</w>
antis</w>
slash</w>
thoroughly</w>
kesh</w>
serie</w>
exem
enig
guild
shred
hogan</w>
apo</w>
ä¸
puzz
netball</w>
aussi
panorama</w>
wsj</w>
avis</w>
arming</w>
humph
browser</w>
cries</w>
foggy</w>
matte</w>
ðŁĮ»</w>
iter</w>
tallest</w>
byron</w>
captiv
jesu
anyways</w>
flagship</w>
pton</w>
wey</w>
fayette</w>
financial
foul</w>
solomon</w>
jennifer
cucumber</w>
argue</w>
textile</w>
wrestler</w>
johnston</w>
pastor
ðŁĺŃðŁĺŃðŁĺŃðŁĺŃ
cactus</w>
edible</w>
reserved</w>
richie</w>
metres</w>
ingredient</w>
hella</w>
unto</w>
chol
celebs</w>
poets</w>
graham
hayden</w>
coincidence</w>
baw
communicate</w>
fletcher</w>
/-</w>
toledo</w>
ecuador</w>
counsel</w>
slaughter</w>
linear</w>
atp</w>
osu</w>
joel
eved</w>
conquer</w>
rustic</w>
plicity</w>
recognise</w>
roommate</w>
cracked</w>
jasper</w>
pher</w>
ðŁĮº</w>
woven</w>
moist
ffc</w>
steering</w>
nish
standings</w>
frequent</w>
ardi</w>
hazel
asmsg</w>
baum</w>
dart</w>
sidd
nath</w>
chero
cardboard</w>
css</w>
nsfw</w>
pair
ðŁĺįðŁĺĺ</w>
occurred</w>
homelessness</w>
malone</w>
phe</w>
xia
paddy</w>
declare</w>
theatre
bf
persian</w>
tad</w>
axe</w>
suspicious</w>
lamb
mucho</w>
senior
stas</w>
kite</w>
sting
grad
kaf
watering</w>
Ø¯
spiral</w>
thms</w>
educator</w>
jerome</w>
ofc</w>
clock
sul</w>
pemb
.........</w>
parkway</w>
deaux</w>
restrictions</w>
mons</w>
needle</w>
ej
leagues</w>
watermelon</w>
aman
plenary</w>
maxim
wab
comingsoon</w>
bryce</w>
vigil</w>
supermarket</w>
fortunate</w>
turquoise</w>
president
liv</w>
interns</w>
feelin</w>
fixtures</w>
stunt</w>
staged</w>
premieres</w>
lok
practiti
shortage</w>
logne</w>
vec
concor
rocke
lig
composed</w>
synthetic</w>
dip
camila</w>
chis
jou
susan
eyebrows</w>
supplement</w>
satisfaction</w>
mohammad</w>
tibet
houseof
pun</w>
assam</w>
shadowhun
psyched
seduc
mandatory</w>
herbert</w>
scallo
streamers</w>
protocol</w>
blockbuster</w>
produces</w>
schnei
laurel</w>
tribe
timehop</w>
pla</w>
modelling</w>
tvtime</w>
mtvstars</w>
widow</w>
metric</w>
cham</w>
condo</w>
flowering</w>
alec</w>
dms</w>
intensity</w>
Â¨
mccartney</w>
islamabad</w>
kb</w>
ffi
phal
analog</w>
fond</w>
hacks</w>
positivity</w>
treaty</w>
submarine</w>
connect</w>
selen
categories</w>
cub</w>
organize</w>
sik
quoteoftheday</w>
reminding</w>
amor
locking</w>
ðŁĳıðŁı¼</w>
compound</w>
ette
bout
recur
ference</w>
mizz
trend
hipster</w>
fortress</w>
forthcoming</w>
prelimin
odyssey</w>
angp</w>
delici
evenings</w>
ðŁĶ¹</w>
iq</w>
dw</w>
dair
kathryn</w>
christianity</w>
moonlight</w>
hab</w>
whoo
fbf</w>
seth
genuinely</w>
pax
charity
deployed</w>
bnb</w>
bucs</w>
judg
conge
plantation</w>
impress</w>
cara</w>
sclub</w>
scopy</w>
landers</w>
complaints</w>
bama</w>
rebuild</w>
xy
realism</w>
shour</w>
lein
bracelets</w>
mera</w>
assassin</w>
anchor
ðŁĳĮðŁı¼</w>
linen</w>
confron
chronicle</w>
comment
catalog</w>
illes</w>
gorge</w>
metry</w>
jungkook</w>
lovemy
sentin
seem
fitness
allied</w>
tsman</w>
digitaltransformation</w>
pran
loft</w>
minton</w>
aldenrichards</w>
envel
cherish</w>
certainty</w>
zzz</w>
rhino</w>
perkins</w>
enrich
capetown</w>
ometer</w>
sections</w>
skeleton</w>
defenders</w>
ðŁĺĿ
penc
brit</w>
jah
capitalism</w>
ðŁ¥ĩ</w>
bazaar</w>
reme
ext</w>
kkk</w>
convert</w>
stormy</w>
bye
karan
chrysler</w>
ados</w>
pressed</w>
sync</w>
ationday</w>
danger
badges</w>
refuses</w>
empowering</w>
lym
exports</w>
adoptdontshop</w>
ðŁĩ¯
thc</w>
awaited</w>
focuses</w>
fined</w>
oat
hahahah</w>
âģ©
nfamily</w>
fiona</w>
luckily</w>
thrilling</w>
typing</w>
outbreak</w>
dies
heu
crawl</w>
nesses</w>
oath</w>
scripts</w>
geeks</w>
ðŁĲĿ</w>
pb
mathematics</w>
alis</w>
________________
gymnastics</w>
activism</w>
recommendation</w>
gren</w>
wain</w>
courty
napol
cauli
hornets</w>
gals</w>
jockey</w>
dirty
atar
enormous</w>
pest
gregation</w>
anos</w>
iiii
defends</w>
blackhistorymonth</w>
atx</w>
mbc</w>
luggage</w>
witch
cob
lasts</w>
cum
ggg</w>
bathing</w>
nar</w>
cebu</w>
ðŁįĥ</w>
navigation</w>
mine
rejo
ðŁİĢ</w>
giftide
reta
useless</w>
pull
deficit</w>
allu
atime</w>
itv
trillion</w>
pue
acies</w>
procedure</w>
lori
jenny
cad</w>
ulously</w>
drac
promotes</w>
ingthe
canu
woohoo</w>
naomi</w>
zardari</w>
tsu</w>
beir
sdg</w>
lever
weber</w>
abud
lund</w>
crowded</w>
deployment</w>
terrain</w>
kenny
hof
witnessed</w>
loch
jk
bully</w>
wren
poetry
doff</w>
wwi</w>
mored</w>
dini</w>
culture
prompt</w>
Â¥</w>
maurice</w>
topps</w>
rm
correspon
about
jewels</w>
gibr
eagle
ðŁĺĺðŁĺĺðŁĺĺ</w>
lending</w>
souven
çĶ
contemporaryart</w>
establishment</w>
jong
âĢ¦"</w>
gator
patriotic</w>
mccoy</w>
vape</w>
humane</w>
feliz</w>
coachella</w>
reposting</w>
steals</w>
fuller</w>
nering</w>
atra
(-</w>
blake
heather
worms</w>
disciplinary</w>
redemption</w>
yard
amin</w>
"@_</w>
dnc</w>
tds</w>
kappa</w>
newark</w>
commits</w>
spears</w>
jams</w>
tand
msnbc</w>
intermedi
aimed</w>
atic
teenth</w>
observation</w>
kashmir
kavanaugh</w>
oul
sanfrancisco</w>
reu
belated</w>
chow
password</w>
stills</w>
detained</w>
sari</w>
dayton</w>
darren
italian
arth</w>
amusic</w>
arbit
wm
vm</w>
hem
doug
myr
asho
prev
vind</w>
brah
stag</w>
à¸µ</w>
previews</w>
guk</w>
containing</w>
leonardo</w>
saddle</w>
rushing</w>
stav
longh
gambling</w>
vegas
reservation</w>
endale</w>
bala</w>
fla</w>
variant</w>
hedge</w>
bulgaria</w>
natali
weaver</w>
solst
encouraged</w>
apc</w>
asparag
nest
cyclists</w>
fel</w>
ìĬ¤
overwhelming</w>
peyton</w>
jit</w>
apost
mble
bleeding</w>
neighbourhood</w>
avery</w>
expressions</w>
macdonald</w>
gigs</w>
monds</w>
illusion</w>
nct</w>
camero
overhead</w>
myth
oly
vio</w>
etv</w>
laurie</w>
unveiling</w>
prior
conn</w>
ironman</w>
diff</w>
dayin
critici
congo</w>
revision</w>
wale</w>
director
pines</w>
blackpink</w>
garner</w>
curated</w>
manitoba</w>
hac
commonly</w>
barton</w>
....#</w>
mortality</w>
livesmatter</w>
philosop
shorter</w>
convince</w>
freak
vendors</w>
insightful</w>
elly</w>
sensors</w>
eled</w>
sberg</w>
weightloss</w>
ukip</w>
spur</w>
private
qua</w>
ssc</w>
,...</w>
supervisor</w>
adviser</w>
amazingly</w>
lesser</w>
ates
mahon</w>
oooooo</w>
saras
pmoindia</w>
waffle</w>
unders</w>
tolerance</w>
sculptures</w>
hersh
knocking</w>
smoke
catholic
grim
traveled</w>
flip
geoff</w>
dinosaurs</w>
slept</w>
scarlet</w>
oki</w>
complaint</w>
obsc
nami
lag</w>
crossfit</w>
ufc
mccain</w>
referee</w>
sadness</w>
penny
lieu
mode
kier
vols</w>
wis</w>
elon</w>
shea</w>
bao</w>
sonia</w>
claire
emmanuel</w>
moisture</w>
digest</w>
viii</w>
teller</w>
chon
accessory</w>
nightclub</w>
fossil
awan</w>
husky</w>
aboriginal</w>
brandon
fficient</w>
cougars</w>
sted
admitted</w>
ignored</w>
contentmarketing</w>
agas
vase</w>
executed</w>
negotiations</w>
shead</w>
nand
tablets</w>
goth</w>
tsal</w>
dfw</w>
onep
protector</w>
spho
gazette</w>
andreas</w>
sser</w>
compilation</w>
hav</w>
containers</w>
broker</w>
socal</w>
porcelain</w>
hyuk</w>
airing</w>
ðŁĴ°
publisher</w>
scenario</w>
spartans</w>
reviewing</w>
itudes</w>
edel
pearson</w>
bash
maui</w>
aad
ðŁĮĬ
liu</w>
ulate</w>
programmes</w>
favour</w>
webdesign</w>
realty</w>
motivational</w>
crosses</w>
'...</w>
busch</w>
adjustable</w>
arjun</w>
mistak
dimension</w>
pistol</w>
weighs</w>
eny</w>
unveil</w>
indycar</w>
gordon
fade</w>
franken
qualities</w>
bett</w>
locate</w>
kerr</w>
spc</w>
confusion</w>
nee
lucky
bases</w>
depends</w>
firefighter</w>
ola
ret
maroon</w>
ðŁĶĬ</w>
wam
defining</w>
wheat
bil</w>
Ã©s</w>
bhai</w>
psych</w>
tau</w>
icans</w>
thik</w>
obile</w>
inspector</w>
ìĨĮë
illon</w>
gos
evangel
fai
sist</w>
vocation</w>
burge
chistan</w>
renewed</w>
enthusiasm</w>
enting</w>
agri
ikea</w>
msc</w>
aerospace</w>
sensiti
memoir</w>
hospice</w>
cocaine</w>
derry</w>
mechanics</w>
Ħà¸
tino</w>
reduces</w>
collectors</w>
injustice</w>
suppre
vana</w>
abun
napa</w>
susa</w>
oslo</w>
eff
encore</w>
licence</w>
cheddar</w>
zal
mount
ðŁĴĲ</w>
threatens</w>
!!"</w>
archie</w>
futsal</w>
scuba</w>
jos
gnon</w>
sexi
sofficial</w>
comparing</w>
dominant</w>
toftheday</w>
fait</w>
proposals</w>
gift
yas</w>
cnc</w>
lr
hab
reservoir</w>
beliefs</w>
general
marti
td
este</w>
ìł
wil</w>
ðŁĳ¯</w>
ðŁĶ«</w>
spx</w>
etwork</w>
excerpt</w>
einstein</w>
hiro</w>
silhou
teamed</w>
perception</w>
corridor</w>
mentalhealth
hints</w>
benny</w>
inducted</w>
swx</w>
widesp
speak
cheryl</w>
drug
ðŁĺķ</w>
hf</w>
asparagus</w>
mysteries</w>
fitzgerald</w>
offer
therapist</w>
career
damaging</w>
tsd</w>
peru
weibo</w>
yay
phoenix
discre
macbook</w>
barker</w>
stigma</w>
spread
rockies</w>
kangar
bridg
pai
bishop
tailed</w>
capsule</w>
ðŁĴĵ
geof
royale</w>
shortlisted</w>
oste
ashamed</w>
chapp
keye</w>
cla</w>
screenshot
austrian</w>
native
enight</w>
juliet</w>
michele</w>
ðŁĮ´
travelers</w>
pil</w>
footballer</w>
winchester</w>
ðŁĻĦ
azerbai
goldeng
organisations</w>
interpretation</w>
predator</w>
oftheweek</w>
logan
pokÃ©
marie
calla
tnt</w>
cinde
getic</w>
fitfam</w>
grav
owens</w>
ðŁĮ±</w>
shootout</w>
salis
commissions</w>
cohe
ptic</w>
nixon</w>
hia</w>
ambition</w>
marine
cruelty</w>
tk</w>
crude</w>
salty</w>
jima</w>
mongo
irony</w>
onwards</w>
arrests</w>
strangers</w>
iger</w>
cyclist</w>
rag</w>
extends</w>
tradio</w>
bourg</w>
moi
ella
eable</w>
lexus</w>
aul
dera</w>
historian</w>
morton</w>
tiff</w>
manner</w>
kot</w>
dk
pointed</w>
marqu
aan
eney</w>
dublin
onpoli</w>
emili
secret
flo</w>
âļ¡</w>
baj
steep</w>
accompanied</w>
rumours</w>
devi</w>
purchasing</w>
fig</w>
pub
schoo
autonomous</w>
goalie</w>
xia</w>
automatically</w>
revers
tero
fuku
titanic</w>
shook</w>
sandals</w>
seekers</w>
excav
nordic</w>
bigolive</w>
bake
ratt
zak</w>
nep
ðŁĺ¤</w>
candy
billions</w>
bookworm</w>
ppet</w>
à³
surfaces</w>
scars</w>
philip
dogg</w>
cigars</w>
cote</w>
translated</w>
curator</w>
sindh</w>
hangover</w>
brewer</w>
ones
elton</w>
ðŁĴªðŁı¼</w>
marcu
elliot</w>
righte
dioce
russ</w>
railways</w>
grandson</w>
ascen
apology</w>
await</w>
mobili
respir
partisan</w>
olivi
strike
yoo</w>
whitehouse</w>
expressed</w>
pups</w>
bedford</w>
cultur
frogs</w>
flying
cavali
cds</w>
friger
streetphotography</w>
resolve</w>
taliban</w>
kang</w>
crushing</w>
jum
ðŁĺĴ
williamson</w>
tang</w>
curly</w>
tman</w>
veteran
faire</w>
artificialintelligence</w>
unanim
pren
backdrop</w>
frances</w>
occer</w>
dorothy</w>
working
arthr
converted</w>
daylight</w>
servant</w>
paddle</w>
complaining</w>
thirty</w>
nadal</w>
aku</w>
ibrahim</w>
addressed</w>
piss</w>
greenhouse</w>
battalion</w>
simulator</w>
outlets</w>
embroidery</w>
ðŁĵ±</w>
fiscal</w>
gerard</w>
sassy</w>
ðŁİīðŁİīðŁİī</w>
ventures</w>
merit</w>
publicity</w>
ðŁĳĪ</w>
sophisticated</w>
ctu
conventional</w>
condolences</w>
israel
tradition
aran
tess</w>
glad
ðŁĺĬðŁĺĬ</w>
correction</w>
geon
amd</w>
orship</w>
beast
chment</w>
ìŀ
nico
wknd</w>
wels</w>
cushion</w>
belie
voc</w>
idiots</w>
underneath</w>
puma</w>
cornell</w>
enation</w>
lul
swach
abig
urer</w>
mie
formerly</w>
caf</w>
ernal</w>
chorus</w>
julius</w>
senator
âľį
whir
salvador</w>
phd
unified</w>
booster</w>
graphical</w>
wrec
sonny</w>
miz
derers</w>
sall</w>
vens</w>
tuscany</w>
wid</w>
yong</w>
kurds</w>
waz
trolls</w>
macro
caturday</w>
pressing</w>
sasha</w>
centennial</w>
gusts</w>
emc
before
denise</w>
cust
ðŁĵ¢</w>
looo
basel</w>
england
yolo</w>
ardu
manifesto</w>
doha</w>
ìľ
knives</w>
bournemouth</w>
bibl
barb</w>
alicia</w>
Ø©</w>
comer</w>
cyclone</w>
git</w>
anews</w>
characteri
ventura</w>
intra
sfgiants</w>
hut
bea</w>
darwin</w>
eller
alv
reese</w>
bly
karan</w>
conclusion</w>
manny</w>
flakes</w>
uniteblue</w>
nadu</w>
copp
edges</w>
lancashire</w>
ials</w>
otta</w>
philippe</w>
lent
chee</w>
mentors</w>
festival
anism</w>
complimentary</w>
rj</w>
pug
dine
wei</w>
cliffs</w>
sarmy</w>
tiveness</w>
treasury</w>
iland</w>
aftermath</w>
rabbi</w>
oun</w>
bouquet</w>
heritage
zion</w>
surrender</w>
shenan
inks</w>
karl
ghty
policing</w>
examination</w>
cey</w>
persu
measurement</w>
hydrogen</w>
luhan</w>
âłĢâłĢâłĢâłĢ
wari</w>
Ð¾Ð
jy
fowler</w>
mish</w>
alfre
âĺĳ
bbnaija</w>
catalogue</w>
recognised</w>
saver</w>
huskies</w>
colin
mundo</w>
siva</w>
png</w>
discounted</w>
manutd</w>
fresno</w>
devin</w>
preliminary</w>
trophies</w>
plastics</w>
dug</w>
procu
indigo</w>
gard</w>
dylan
pitches</w>
groundbreaking</w>
inson</w>
blac
anthology</w>
fh</w>
explic
rard</w>
admiral</w>
sochi</w>
lashes</w>
splendid</w>
envy</w>
adv</w>
sexy
festivities</w>
sticking</w>
bib</w>
thrill</w>
opp</w>
ariel</w>
botanical</w>
endurance</w>
females</w>
bricks</w>
vatican</w>
blackpool</w>
bermu
brough</w>
roller
bid
suede</w>
slovenia</w>
mming
mlb
medalist</w>
dians</w>
rehabilitation</w>
neon
sgo</w>
lithu
ramos</w>
zed
pianist</w>
intensive</w>
broadband</w>
study
petersburg</w>
luca</w>
ahhhh</w>
physician</w>
dillon</w>
telecom</w>
grief</w>
mun</w>
acro
sided</w>
sly</w>
blows</w>
classiccars</w>
trium
argy
?:</w>
hri
marshmal
âĢĵ
topping</w>
warsaw</w>
transc
preservation</w>
bav
refriger
experiments</w>
äº
glit
sliga</w>
gage</w>
factor
flavours</w>
brony</w>
spo</w>
cookbook</w>
carriage</w>
away
nyfw</w>
onian</w>
wg
simpsons</w>
rolex</w>
ðŁı¿</w>
crosby</w>
ãħ¤
credi
syndic
pubs</w>
alife</w>
poorly</w>
maced
ðŁĺŀ</w>
behindthe
wenger</w>
nats</w>
ðŁİŁ</w>
rubbish</w>
procedures</w>
typhoon</w>
ophobia</w>
erdo
fuel
viera</w>
bumps</w>
millennium</w>
newzealand</w>
lectures</w>
iton</w>
milky</w>
responded</w>
ê°
landscape
..@</w>
bother</w>
âĸ¶</w>
zhang</w>
huawei</w>
tuition</w>
sworn</w>
inu
yor</w>
paolo</w>
auditions</w>
abil
malaysian</w>
hops</w>
feathers</w>
mple</w>
auts</w>
Ã£o</w>
bounty</w>
iche</w>
ìĺ
shq</w>
pinot</w>
gears</w>
disappear
videogames</w>
tna</w>
alzheimer</w>
ðŁĮŀ
aji</w>
underwear</w>
switching</w>
signage</w>
oscar
econ</w>
drow
clint</w>
plated</w>
gundy</w>
emblem</w>
hoes</w>
icist</w>
nelly</w>
junior
roadshow</w>
minerals</w>
atle
alexandria</w>
acclaimed</w>
vell
shiva</w>
adhe
enne
amnesty</w>
hounds</w>
councillor</w>
ðŁĴ¦
aesthe
partnering</w>
influenced</w>
magno
flare</w>
extinction</w>
civilian</w>
majesty</w>
vail</w>
lawmakers</w>
racks</w>
mcc</w>
orian</w>
spices</w>
errors</w>
mayer</w>
coca</w>
pai</w>
sooooo</w>
retiring</w>
bathro
ðŁĻĮðŁĻĮ
âĸª
suf
endorsement</w>
building
brooch</w>
palla
arvind
agent
karate</w>
rhi
ctv
taine
umm</w>
bax
reigns</w>
uniof
enterprises</w>
adele</w>
flake</w>
attire</w>
bruce
bahamas</w>
gravy</w>
sain
cheek</w>
trivi
lov</w>
een</w>
bblo
ladygaga</w>
itta</w>
."-</w>
dustin</w>
observatory</w>
eighth</w>
bloomberg</w>
khs</w>
fcc</w>
gist</w>
commemorate</w>
veer
sexuality</w>
edc</w>
nicole
vacancy</w>
user
sona</w>
:'(</w>
diploma</w>
tend</w>
upgrades</w>
ÅŁ
jurassic</w>
cardiac</w>
drs</w>
widespread</w>
Ãł</w>
dailies</w>
vendor</w>
simplicity</w>
wider</w>
lenses</w>
supplements</w>
depos
observed</w>
vines</w>
partially</w>
renewal</w>
collaborate</w>
alig
finity</w>
phu
zzy
petit</w>
ðŁĵħ</w>
zin</w>
igu
smack
fallon</w>
ðŁĵ£</w>
backwards</w>
component</w>
oso</w>
compatible</w>
binding</w>
zurich</w>
thome</w>
wounds</w>
lyric</w>
freshmen</w>
sneaky</w>
fibro
diet
employer</w>
insect</w>
hated</w>
scher</w>
razor</w>
nsw
booker</w>
californi
avfc</w>
Â°
pretending</w>
pepsi</w>
alis
untitled</w>
kart</w>
grandparents</w>
ethe
ock</w>
luxemb
visuals</w>
smallbusiness</w>
abdullah</w>
minho</w>
subaru</w>
hra
revealing</w>
heartbreaking</w>
clarity</w>
amg</w>
slr</w>
****
âŀĸ
record
iciary</w>
minded</w>
yeh</w>
excessive</w>
knuck
icecream</w>
truth
evic
tastic</w>
antarc
rendering</w>
,,
mitt</w>
lorenzo</w>
stpatrick
boundary</w>
zig</w>
vocab
osaka</w>
furn
tun</w>
gul</w>
sounding</w>
blogger
utterly</w>
gaf
advancing</w>
lcd</w>
margin</w>
lifelong</w>
solstice</w>
shra
waits</w>
plear
breach</w>
enligh
ader</w>
ittle</w>
cation</w>
hoon</w>
studied</w>
?????</w>
kash</w>
evangeli
psl</w>
weights</w>
metals</w>
tyres</w>
turno
wie
carb</w>
gale</w>
seal
sunite</w>
amic</w>
patterson</w>
Ã¡n</w>
euph
upstairs</w>
qualifiers</w>
khalifa</w>
applemusic</w>
ìĨĮëħ
vaughan</w>
alter</w>
cruiser</w>
mua</w>
tana</w>
katrina</w>
idols</w>
spoiled</w>
secretly</w>
fibre</w>
partnered</w>
umes</w>
giov
comet</w>
screenshotsaturday</w>
keller</w>
filtr
fet
conway</w>
peu
badminton</w>
gid</w>
mound</w>
donkey</w>
buff</w>
leather
largely</w>
broch
intments</w>
amuse
rk</w>
stove</w>
impacted</w>
cont</w>
cracks</w>
prisoner</w>
bari
contractor</w>
orioles</w>
dominate</w>
polar
amelia</w>
drc</w>
ðŁĳĮðŁĳĮ</w>
vist</w>
suarez</w>
injection</w>
blooms</w>
ðŁļ¨ðŁļ¨</w>
stiff</w>
paypal</w>
snowing</w>
thursdays</w>
goose
wedge</w>
educated</w>
weakness</w>
decker</w>
abudha
breezy</w>
ÛĮ
hopeful</w>
obi
raider</w>
gham
deu
seve
partly</w>
fut
infused</w>
merri
thane</w>
sometime</w>
hue</w>
mein</w>
credit
sliding</w>
rande</w>
cherry
deadpool</w>
shol
aram</w>
underwood</w>
skye</w>
disturbing</w>
mnt</w>
polished</w>
guardians</w>
hadn</w>
picasso</w>
arius</w>
akshay
irri
jh</w>
happen
lakh</w>
dalton</w>
atthe
swell</w>
marsha</w>
reh
cours</w>
jkt</w>
topus</w>
service
rink</w>
hackers</w>
donovan</w>
horo
tcm
mayhem</w>
chase
devops</w>
kensing
scup</w>
shere</w>
qualification</w>
clive</w>
tong</w>
nancy
maris
derdale</w>
berman</w>
cinderella</w>
jolly</w>
cic</w>
loot</w>
collectibles</w>
homicide</w>
gge
epidemic</w>
suites</w>
muddy</w>
gimme</w>
erec
-*</w>
talla
lisle</w>
embroide
ðŁĩ©ðŁĩª</w>
verizon</w>
vector</w>
beanie</w>
artisan</w>
gain
flores</w>
vigil
uso</w>
ðŁĻıðŁı½</w>
grinding</w>
gher
airports</w>
responsive</w>
shaft</w>
cancel</w>
ceremonies</w>
eme</w>
atari</w>
brushes</w>
eager</w>
bohemi
childrens</w>
yankee</w>
maa</w>
suspense</w>
moran</w>
macar
sunflower</w>
crew
void</w>
kear
fashioned</w>
jennings</w>
sundayfunday</w>
submissions</w>
mead</w>
herman</w>
wai</w>
critically</w>
leum</w>
baekhyun</w>
forcing</w>
cobra</w>
ãģ®
acquire</w>
alk</w>
geology</w>
primar
importantly</w>
irez</w>
bundesliga</w>
curiosity</w>
sena</w>
strict</w>
consoli
winters</w>
venom</w>
cheltenham</w>
ðŁįº</w>
cena</w>
tat</w>
bain</w>
glover</w>
undercover</w>
asses</w>
carn
memorialday</w>
ameli
irene</w>
chon</w>
synthesis</w>
speedy</w>
mitsubi
slayer</w>
composite</w>
understands</w>
pew
interrup
henri</w>
morrow</w>
anom
thofjuly</w>
glee</w>
three
ðŁĺ®</w>
andhi</w>
chatt
renewables</w>
yes
transfers</w>
!!!!!!!!</w>
babu</w>
duter
loops</w>
peers</w>
oilers</w>
paulo</w>
ication</w>
hmu</w>
wara</w>
mercer</w>
homeland</w>
fuji</w>
aley</w>
yearbook</w>
rem</w>
reen
absur
bois</w>
]:</w>
caesar</w>
shotgun</w>
kurdish</w>
oren
rae
ancies</w>
typic
fh
default</w>
replic
luk</w>
transactions</w>
rys</w>
infantry</w>
ðŁį¾</w>
chow</w>
chickens</w>
bagh
wyatt</w>
aye
ggi</w>
brews</w>
editions</w>
mira
commencement</w>
presu
periscope</w>
ichi
guatemala</w>
zambia</w>
paints</w>
witches</w>
wani</w>
undere
croy
vows</w>
usmc</w>
hearted</w>
theatres</w>
shuffle</w>
level
multic
squeeze</w>
fern</w>
appet
postal</w>
malt</w>
onboard</w>
ldnt</w>
coo</w>
ssc
kac
ðŁĺĩ
scrap</w>
marcos</w>
dealers</w>
annu
miller
cove
ulary</w>
vladimir</w>
beef
thur</w>
pickled</w>
sesame</w>
bengaluru</w>
mott</w>
kathleen</w>
hist
notor
drank</w>
duchess</w>
snowfall</w>
eff</w>
tiny
jn</w>
syour
specialists</w>
scotus</w>
baylor</w>
everest</w>
malibu</w>
prem</w>
harmful</w>
lali
bates</w>
gye
differenti
andra</w>
geometry</w>
elover</w>
blackout</w>
====
kota</w>
interact</w>
asian
layo
samurai</w>
fidel
exhausted</w>
gladi
pdt</w>
spheric</w>
antiqu
guitar
sturi
hopper</w>
angle
fills</w>
slap</w>
mith
rodney</w>
ongi</w>
insom
preventing</w>
cassidy</w>
apho
oregon
loin</w>
hammond</w>
contributing</w>
fn</w>
garri
orion</w>
compelling</w>
escaping</w>
aiming</w>
plumb
bistro</w>
beasts</w>
concerning</w>
boe</w>
dopp
shoplocal</w>
stumbled</w>
âĤ¹</w>
nazis</w>
âĢįâĻĤï¸ı
gesture</w>
warts</w>
usopen</w>
higgins</w>
charli
hangs</w>
bombers</w>
°:</w>
feeds</w>
cch
stil
nicola</w>
ðŁĵº
clamation</w>
tropic
afro</w>
ouk</w>
expenses</w>
derrick</w>
aline</w>
faw
regard</w>
imer</w>
satin</w>
thium</w>
ryder</w>
pearl
tess
mmmmm</w>
senses</w>
ðŁĩ¹
positive
exhaust</w>
occur</w>
norris</w>
lilly</w>
isles</w>
directing</w>
yofficial</w>
countless</w>
samar
onstage</w>
flock</w>
mirrors</w>
archer</w>
moi</w>
kd
viv
inos</w>
sikh</w>
lei</w>
sensory</w>
brits</w>
knox</w>
chestnut</w>
opy</w>
coliseum</w>
zaf
divin
adapter</w>
:)))</w>
temple
kun</w>
helmets</w>
tdf</w>
guide
mold</w>
oids</w>
luther
heis
monastery</w>
spree</w>
klu
britney</w>
jaguars</w>
greats</w>
ccc</w>
kyrie</w>
machinery</w>
cricket
rero</w>
abo</w>
aspiring</w>
semifinals</w>
aless
signatures</w>
vard
meth
herbal</w>
holden</w>
kingdom
apor
reggie</w>
oreo</w>
palestinians</w>
emmys</w>
sectional</w>
roi</w>
neymar</w>
quel</w>
cull
lka</w>
hazel</w>
estimate</w>
ulties</w>
gow
bea
purchases</w>
belts</w>
protects</w>
mÃ©
guessing</w>
bbo</w>
claudia</w>
fracking</w>
jonny</w>
elk</w>
celtic
almighty</w>
raje
courtyard</w>
igi</w>
canes</w>
ðŁĴªðŁı»</w>
bankrup
lethal</w>
âľĮï¸ı
graphicdesign</w>
vader</w>
pencils</w>
roughly</w>
dante</w>
mfg</w>
constell
camel</w>
jb
blossoms</w>
ento
balochistan</w>
cinemato
illard</w>
jersey
consent</w>
dented</w>
contempl
scher
holi</w>
lough
stour</w>
ayo
beginners</w>
curb</w>
vhs</w>
ajax</w>
duff</w>
aveng
domest
committing</w>
aired</w>
chap</w>
hedgehog</w>
disappointing</w>
freelance</w>
inland</w>
charms</w>
ðŁĺįâĿ¤ï¸ı</w>
aish
mx
buckle</w>
tidal</w>
permit</w>
boating</w>
racha
kendrick</w>
bello</w>
bhi</w>
plea</w>
estimates</w>
lb
apologies</w>
jaya</w>
bbl</w>
astoni
interstate</w>
maintaining</w>
elbow</w>
mup</w>
epit
ðŁĺ¡
violations</w>
defend
beh
slc</w>
amir</w>
puri</w>
tium</w>
fifa
blurry</w>
scrim
ðŁĻıðŁı¾</w>
maple
relatives</w>
âĺĿ
choc</w>
connor
âľ¨âľ¨</w>
whisp
listings</w>
maze</w>
thanking</w>
ridd
grassroots</w>
shifting</w>
desperately</w>
gorilla</w>
deni
jules</w>
strath
gley</w>
jain</w>
buick</w>
tanner</w>
ðŁĴĿ</w>
gae</w>
prim
itors</w>
nano</w>
separation</w>
armenia</w>
bordeaux</w>
ðŁħ
pjnet</w>
burial</w>
ebon
gloss</w>
renew</w>
grier</w>
speeds</w>
comicbooks</w>
symboli
purposes</w>
ãħłãħł
spatial</w>
notable</w>
cion</w>
nps</w>
hoffman</w>
norman
rtg</w>
dusty</w>
situated</w>
tran</w>
kfc</w>
emen</w>
nickel</w>
hastings</w>
settling</w>
grit
lena</w>
waw
arts
gum
caregi
lewis
sapphire</w>
remember
embedded</w>
tlc</w>
blat
sergeant</w>
elsa</w>
bootcamp</w>
bowman</w>
photographic</w>
pillars</w>
directioners</w>
classified</w>
nois
veer</w>
barrels</w>
whoop</w>
ðŁĺ±ðŁĺ±
female
petroleum</w>
media
efc</w>
pokÃ©mon</w>
à¤ķ</w>
enthusiastic</w>
varun</w>
profiles</w>
pediatric</w>
accidents</w>
conrad</w>
jang</w>
jojo</w>
acor
observer</w>
lf</w>
livestock</w>
forgi
fos</w>
elm</w>
anand</w>
goe
cere</w>
avoiding</w>
grit</w>
oman
thankfully</w>
scattered</w>
nicky</w>
cylinder</w>
cheesy</w>
diver</w>
mahesh</w>
caves</w>
earliest</w>
quinte
subjects</w>
bend
gulf
vocalist</w>
glue</w>
patches</w>
unstopp
snyder</w>
demonstrating</w>
pio</w>
horns</w>
wickets</w>
andthe
rama</w>
yoon</w>
straight
bedtime</w>
orang
bullets</w>
saurus</w>
miners</w>
incidents</w>
!...</w>
ðŁİ¸</w>
agers</w>
handles</w>
states
inity</w>
dons</w>
incredible
eminem</w>
aviv</w>
rudy</w>
mozart</w>
folklore
appliances</w>
mtl</w>
frey
dias
hua</w>
pageant</w>
strive</w>
imprison
bullish</w>
rana</w>
alerts</w>
bbmas</w>
hyper</w>
derbyshire</w>
recre
redd
deborah</w>
cosmos</w>
lawson</w>
melanie</w>
psycho</w>
hoor
doodles</w>
sniper</w>
shady</w>
mantle</w>
canadian
newyear
interactions</w>
separated</w>
cords</w>
spirituality</w>
apu
ito
pct</w>
pelosi</w>
rebellion</w>
seiz
worcester
sectors</w>
uli</w>
santa
Ðµ
ðŁĩªðŁĩ¸</w>
biased</w>
classical
gamma</w>
deeplear
emerge</w>
backer</w>
surance</w>
handcrafted</w>
ðŁİ¥
francis
millan</w>
ici</w>
crown
wow
striped</w>
unfair</w>
relaxation</w>
³ï¸ı
embracing</w>
shealth</w>
paleo</w>
martini</w>
distillery</w>
wrink
ork
nath
hayley</w>
courthouse</w>
siber
sadi
quietly</w>
melt
msm</w>
meh</w>
smartphones</w>
relent
pping
warwick</w>
cologne</w>
glia</w>
cotton
prog</w>
lone
ipsw
starters</w>
expands</w>
ump
sued</w>
skipper</w>
infections</w>
ingle
Ã¡</w>
clerk</w>
demonstrate</w>
acar
ðŁĺĤðŁĺĤðŁĺĤ
tibet</w>
buns</w>
alom</w>
demolition</w>
ssia</w>
gst</w>
[]</w>
soar</w>
âĺĢ</w>
ðŁĺª</w>
ðŁĵĬ</w>
deepest</w>
beyond
aret</w>
attends</w>
activated</w>
dimit
âļªï¸ı
highlighted</w>
magazines</w>
rumor</w>
azza</w>
stephens</w>
dolph</w>
shockey</w>
mats</w>
weav
melan
servers</w>
traum
kush
æĹ
babys
paz</w>
aal
lause</w>
breakers</w>
canterbury</w>
ulture</w>
miri
euros</w>
taneous</w>
impressions</w>
dutch
ild
ghi</w>
purdue</w>
adequate</w>
lp
syner
angler</w>
durable</w>
galore</w>
rown
mgmt</w>
ðŁĵĮ</w>
lucia</w>
âĺĳï¸ı</w>
zayn
borrow</w>
.(</w>
northumber
crush
enga</w>
sush
extravag
tout</w>
mahal</w>
alistic</w>
thermo
galleries</w>
esse</w>
chibi</w>
attractions</w>
lexington</w>
legislature</w>
documented</w>
residen
brownies</w>
wf</w>
stool</w>
planets</w>
shoppers</w>
conductor</w>
msp</w>
tricky</w>
fruity</w>
endra</w>
feelthe
whipped</w>
hairstyle</w>
refer</w>
ook
octopus</w>
audiences</w>
kumar
afterno
optim
cfl</w>
nip</w>
geni
alphabet</w>
annab
lamin
accepts</w>
lng</w>
ðŁĺ«</w>
tine</w>
acom</w>
cheerleaders</w>
tk
gron
vg</w>
kung</w>
jax
dhabi</w>
rss</w>
mackenzie</w>
beirut</w>
cleanup</w>
gypsy</w>
stell
burger
hurricanes</w>
education
stina</w>
âĻ¡âĻ¡
unfortunate</w>
jeremi
badger</w>
aters</w>
:âĢ¦</w>
terra
sublime</w>
stud
ymca</w>
mru</w>
duterte</w>
brennan</w>
bulb</w>
melo</w>
ylon</w>
hacker</w>
cred</w>
gud</w>
asan
padilla</w>
embroidered</w>
vietnamese</w>
pioneers</w>
projection</w>
reboot</w>
idc</w>
aney</w>
primer</w>
suffers</w>
winding</w>
pon</w>
stoday</w>
morn</w>
uch</w>
allin</w>
adidas
elizabeth
tuck</w>
ography</w>
ðŁļĢ
beg</w>
osborne</w>
ghetto</w>
rh</w>
cnn
irma</w>
makin</w>
cables</w>
murders</w>
ocks</w>
insta
alas</w>
sik</w>
cuff</w>
lare
foodies</w>
ovic</w>
atom
geometric</w>
empathy</w>
à¸µ
centenary</w>
newspapers</w>
administrative</w>
ðŁİĬ</w>
stive</w>
contractors</w>
lett
tasmania</w>
awesomeness</w>
density</w>
veen</w>
princeton</w>
frequently</w>
reject</w>
ghi
modular</w>
ceramics</w>
shag
kiwi</w>
canvas
sweatshirt</w>
anj
timm
napoli</w>
iler
appeals</w>
hamilton
mayo
weave</w>
arranged</w>
wharf</w>
occupy
bvb</w>
asaki</w>
otter</w>
norm</w>
vies</w>
detox</w>
tional
derek
idad</w>
admissions</w>
constituency</w>
upper
woot</w>
alloy</w>
seve</w>
lub
uncomfortable</w>
edwin</w>
abre
dwight</w>
arche
virtually</w>
spol
prie
aii</w>
err
switch
barack</w>
seok</w>
coul
wnt</w>
poul
olive
caffeine</w>
cardiff
notorious</w>
demp
excess</w>
barr</w>
tford</w>
ajay
bumped</w>
mythology</w>
shelley</w>
falcon
shakespeare
mustangs</w>
noted</w>
bone
civilization</w>
syd</w>
parsons</w>
unofficial</w>
hyped</w>
spends</w>
opposed</w>
vings</w>
spacex</w>
notification</w>
deciding</w>
[...]
